<unk>
<s>
</s>
,
.
the
in
of
and
die
der
to
und
a
is
that
zu
for
den
von
ist
on
für
an
mit
with
(
das
The
)
be
are
auf
des
as
I
-
eine
this
Sie
im
:
it
es
nicht
werden
&quot;
we
ein
by
have
dass
dem
sich
not
Die
you
wir
will
auch
which
or
at
from
was
sind
wird
has
als
um
In
s
ich
can
oder
all
our
also
haben
über
European
-@@
so
einer
/
hat
!
?
sie
&apos;
wie
einen
er
zur
Das
aus
bei
Union
your
&apos;s
its
Ich
können
–
We
but
am
one
would
more
einem
’
their
been
nach
This
zum
It
Wir
diese
uns
nur
un@@
durch
should
kann
Mr
Der
de
;
dieser
do
very
Commission
must
...
Es
vor
er@@
us
daß
they
Kommission
there
noch
new
“
wurde
other
time
ver@@
only
like
EU
an@@
aber
about
re@@
Hotel
Herr
man
wenn
S@@
sehr
sein
müssen
President
t
these
in@@
i
up
who
e
o
war
en
B@@
no
ten
diesem
k@@
te
P@@
en@@
if
A
ge@@
alle
s@@
out
mehr
%
any
Europäischen
Europe
T@@
A@@
into
were
people
2
t@@
Parliament
bis
möchte
G@@
K@@
such
eines
1
ab@@
what
D@@
use
States
d@@
C@@
than
H@@
countries
report
be@@
my
Member
vom
need
ihre
when
his
some
most
Präsident
well
gibt
M@@
p@@
e@@
now
F@@
hotel
first
unter
sowie
work
dieses
E@@
b@@
make
them
Council
many
f@@
important
L@@
m
N@@
between
ing
o@@
y
way
hier
g@@
n@@
m@@
system
z@@
take
because
zwischen
able
3
c@@
da
ein@@
muss
An@@
W@@
Bericht
keine
„
unsere
he
al@@
Ver@@
made
information
Ihnen
Parlament
ch@@
years
just
R@@
If
had
support
anderen
two
&#91;
over
y@@
&#93;
world
d
those
Mitgliedstaaten
where
O@@
Wenn
Europa
u@@
immer
”
dies
li@@
policy
dann
i@@
me
being
ed
aus@@
Im
st@@
sch@@
ter
di@@
de@@
v@@
may
diesen
V@@
gegen
end
damit
even
a@@
wurden
Ab@@
Diese
good
5
see
4
al
ent@@
right
Frau
year
order
ers
Zeit
area
l@@
Ihre
unserer
gen
here
habe
ti@@
ung
part
place
ar@@
You
seine
same
market
jedoch
h@@
sondern
l
k
le
after
I@@
Europäische
through
el@@
ts
possible
neue
10
As
ation
j@@
political
own
&amp;
Menschen
heute
There
could
si@@
used
Jahr
then
economic
For
development
want
ri@@
Sch@@
within
J@@
.@@
Be@@
bereits
r@@
or@@
ro@@
rights
ate
how
auf@@
both
Z@@
Ein@@
finden
against
find
mich
sollte
europäischen
much
international
therefore
Jahren
ihrer
neuen
denen
ge
zu@@
ohne
under
does
andere
le@@
vor@@
country
point
g
on@@
room
public
es@@
at@@
Rat
um@@
zwei
without
sollten
Entwicklung
free
Frage
service
last
services
number
great
machen
Re@@
allen
ganz
ra@@
still
bietet
available
w@@
geht
n
Mit
different
liegt
fact
say
Aus@@
view
social
viele
Ein
In@@
ungs@@
ungen
set
la
u
course
Welt
already
Unternehmen
6
se
before
future
believe
dazu
too
get
That
el
know
weil
today
jetzt
p
wieder
products
U@@
sten
20
30
über@@
But
denn
seiner
3@@
per
cannot
te@@
case
c
Er@@
think
Informationen
2009
Lage
city
th@@
darauf
dis@@
process
her
go
Bereich
data
offers
am@@
level
einige
day
ar
Maßnahmen
em@@
schon
dafür
selbst
tes
ern
human
So
rooms
Commissioner
quality
situation
during
geben
financial
Vor@@
ihren
Jahre
ihr
b
best
ated
x
national
z
Herrn
high
bin
sagen
issue
Eine
Al@@
Dies
said
example
mir
Arbeit
viel
debate
st
et
lo@@
allem
means
every
ob
7
small
ab
question
ch
würde
Our
gut
including
meine
sp@@
proposal
ale
However
since
et@@
help
stehen
All
wollen
enden
ens
business
Land
unseren
e-@@
each
ische
Für
S
op@@
form
stellen
access
offer
long
problem
Und
ins
China
ste
kommen
bar
la@@
is@@
8
Zimmer
it@@
etwas
clear
während
position
h
wo
particular
ad@@
Länder
nun
Wie
ischen
se@@
lassen
waren
möglich
areas
doch
give
next
few
15
ter@@
con@@
measures
common
provide
agreement
liche
2@@
Committee
Un@@
co@@
based
put
St@@
im@@
seit
energy
x@@
taken
4@@
On
citizens
2010
large
insbesondere
Art
ent
�
ensure
back
steht
again
systems
sehen
ger
erhalten
three
come
Unterstützung
ersten
vi@@
C
Rahmen
&#124;
further
problems
security
r
company
change
Ländern
far
der@@
Internet
Zusammenarbeit
politischen
while
2008
Parlaments
50
Teil
ber@@
using
necessary
ur@@
du
f
ma@@
beim
why
given
located
however
T
shall
ende
stay
besteht
To
Fall
vote
Y@@
soll
life
Vorschlag
With
ert
ke
ta@@
eren
They
us@@
X@@
cooperation
tun
einfach
Con@@
group
needs
lich
ting
Bei
always
real
down
At
Stadt
Group
And
os
seinen
ating
lichen
law
Fragen
wichtig
gen@@
ap@@
ja
deren
Problem
drei
einmal
hope
wäre
USA
as@@
United
Ziel
letzten
Namen
ag@@
main
dabei
action
12
less
km
better
unter@@
Bürger
sk@@
What
around
EU-@@
men
House
Kollegen
ler
ck@@
große
5@@
ted
power
working
qu@@
großen
ac@@
did
worden
D
bringen
protection
land
po@@
ly
Daten
System
Was
Mar@@
ten@@
Recht
Auf
Verfügung
production
weiter
Er
programme
Ihr
ger@@
current
zi@@
welche
special
full
Seite
Bedeutung
These
Community
become
au@@
ant
legal
Aber
E
US
Sicherheit
Auch
When
centre
ic
to@@
terms
present
ations
together
Möglichkeit
whether
trade
particularly
open
bi@@
wissen
9
another
sh@@
chen
18@@
ol@@
page
pro@@
gehen
eigenen
-S@@
children
em
Nach
bieten
management
old
result
basis
Regierung
Als
Ar@@
*
ei@@
Mrs
100
ul@@
muß
que
region
site
gi@@
conditions
2007
Thema
é@@
issues
B
les
davon
könnte
alles
daher
Probleme
aller
ine
state
companies
om@@
kein
stellt
ne
pre@@
ings
darüber
experience
line
weitere
ak@@
ser@@
Kunden
Staaten
befindet
certain
führen
Weise
sen
control
O
close
Kommissar
ne@@
water
sowohl
Politik
second
6@@
women
Ihrer
role
ates
various
erreichen
2000
especially
her@@
location
industry
whole
modern
German
mo@@
sector
besonders
really
Euro
Ende
Ro@@
hatte
ie
ges
matter
government
done
meiner
making
Zukunft
health
local
look
25
private
wirklich
ous
account
7@@
Service
unterstützen
unser
Beispiel
+
ihnen
Mo@@
budget
natürlich
create
entfernt
name
innerhalb
verschiedenen
schen
age
specific
global
inter@@
Ge@@
vielen
staff
ere
Germany
sen@@
respect
gegenüber
ci@@
erte
research
days
ds
P
going
che
Rolle
Richtlinie
major
den@@
di
hand
software
19@@
tra@@
Weg
ze
internationalen
million
möchten
kommt
2006
bo@@
_
tions
00
list
zwar
fully
something
ken
Ihren
project
several
Bo@@
away
itself
politische
continue
Frauen
8@@
ä@@
start
Co@@
direkt
da@@
no@@
est
rapporteur
resolution
dort
t-@@
ve
crisis
europäische
Hotels
Tag
hi@@
often
000
ask
Seiten
excellent
so@@
erste
range
man@@
Auf@@
ding
EUR
regard
wish
ans
gentlemen
Ma@@
ing@@
Alle
Hier
least
New
mi@@
a-@@
general
Um
single
transport
Pro@@
He
off
me@@
following
stand
per@@
rules
price
isch
welcome
third
food
growth
personal
money
ex@@
Le@@
9@@
directive
red
Programm
little
once
Artikel
environment
Meinung
found
side
tri@@
arbeiten
online
field
ts@@
subject
Uhr
par@@
M
11
ko@@
towards
De@@
beiden
until
Lösung
product
things
institutions
customers
Situation
Über@@
unserem
nehmen
gesagt
En@@
No
pro
World
fast
ir@@
Madam
F
ut@@
wei@@
Region
ha@@
Zu@@
Fraktion
Dieses
Zusammenhang
increase
individual
Di@@
him
res
town
weniger
version
est@@
thank
standards
family
opportunity
erten
ob@@
design
Hilfe
ber
Produkte
fen
®
Treaty
40
Ex@@
los
del
building
L
rather
&apos;t
positive
y-@@
let
quite
su@@
activities
home
Präsidentin
technology
Mittel
elle
Par@@
call
Arbeits@@
approach
re
Sp@@
jeder
ca
interest
2005
provided
Leben
bitte
th
gilt
resources
value
Deshalb
ster
un
daran
nen
light
Haus
rate
aid
.com
forward
yet
economy
fi@@
via
wi@@
do@@
sogar
etwa
schaffen
R
Software
X
period
ce
ens@@
An
solution
bzw.
Grund
Members
members
agree
September
might
include
key
zen
Millionen
having
Th@@
macht
Se@@
Um@@
ou@@
hinaus
taking
dessen
halten
gemacht
ot@@
ors
Europas
alen
indem
decision
times
International
among
ladies
art
minutes
Schutz
After
State
d-@@
points
costs
ur
due
proposals
ally
allow
play
ö@@
nämlich
gt
One
amendments
len
text
24
sti@@
18
Unsere
Dieser
content
gra@@
Deutschland
14
framework
safety
2004
ho@@
Kinder
ebenfalls
erung
ung@@
words
reason
Unter@@
fer@@
v
ihn
makes
il@@
einigen
ü@@
ator
enjoy
progress
called
website
w
adopted
TV
ben
show
seinem
0@@
brauchen
ons
ati@@
all@@
ses
gute
ene
sicher
ec@@
Mon@@
&apos;@@
unterstützt
mit@@
provides
left
effective
difficult
station
Kon@@
ihm
air
16
sche
others
ischer
darf
Rates
Website
politik
projects
easy
Punkt
legislation
Aussprache
Personen
ach@@
views
opinion
é
darin
Form
ka
results
favour
mon@@
above
application
gu@@
Qualität
known
contact
ra
for@@
responsibility
öffentlichen
du@@
Finanz@@
groups
attention
policies
Berlin
ali@@
simply
pi@@
Restaurant
addition
beautiful
non-@@
concerned
gerade
dürfen
tu@@
questions
short
Da
meisten
glaube
behalf
led
EN
nationalen
je
G
over@@
ideal
2003
Ch@@
Bar@@
com@@
genau
Po@@
Wirtschaft
jeden
ves
nichts
Abstimmung
ß@@
mer@@
pe@@
importance
ni@@
Li@@
keinen
house
car@@
sollen
ihrem
society
and@@
complete
gh@@
ru@@
recht
strategy
Gemeinschaft
Haupt@@
she
setzen
cultural
ker
ment
greater
end@@
Rechte
handelt
ia
bu@@
weiterhin
hin@@
ep@@
sea
zusammen
Grund@@
sa@@
klar
training
zurück@@
environmental
kind
13
Ebene
betrifft
nach@@
Inter@@
Ort
ange@@
he@@
sei
statt
natural
along
ago
ig@@
weit
required
á@@
wer@@
principle
La
heart
step
bedeutet
Ad@@
findet
pages
wichtige
recent
sure
durch@@
Bezug
ellen
€
würden
eb@@
breakfast
kon@@
bereich
nutzen
besten
solche
Rechts@@
under@@
meeting
Or@@
besser
min@@
deal
century
fall
führt
deshalb
schnell
Gesellschaft
Lo@@
wide
Her@@
war@@
ma
deutlich
clearly
address
authorities
ic@@
tion
2001
November
technical
Zugang
ability
aufgrund
gel@@
user
tern
K
men@@
ches
Dank
go@@
Von
gehört
Kosten
etc
sub@@
achieve
solutions
erst
Russia
Richtung
alten
nächsten
enough
plan
directly
past
up@@
10@@
employment
ed@@
hin
needed
facilities
pool
essential
lot
standard
bekannt
ty
serious
ran@@
IT
car
Markt
months
thing
feel
ise
person
nature
bring
developed
allerdings
60
av@@
history
Nähe
related
Ansicht
guests
risk
currently
Please
Aus
responsible
ging
restaurant
proposed
N
Umsetzung
longer
1@@
markets
Ent@@
events
eln
ft
ary
Menschenrechte
vo@@
April
central
visit
lange
requirements
live
ded
tre@@
interests
hei@@
bel@@
tige
Lu@@
ters
ms
Rück@@
comes
cht
parties
bar@@
From
near
Windows
internal
works
voll
comfortable
licher
Ziele
$
language
ina
beispielsweise
top
son
Bau@@
Vertrag
hoffe
night
please
themselves
eller
Verfahren
Verantwortung
V
Version
Car@@
gestellt
2002
ets
team
werde
regions
young
Bedingungen
Gu@@
involved
0
efforts
ff@@
Am
extremely
democracy
voted
‘
ell@@
mar@@
ver
changes
competition
Durch
total
GmbH
regulation
notwendig
ta
verwendet
Anwendung
strong
never
implementation
friendly
vielleicht
Interesse
cases
Demokratie
sch
keep
ell
kleinen
gemeinsamen
Ihrem
Vorschläge
ck
Haushalts@@
ziehen
held
force
four
Neu@@
Grundlage
Man
network
Reihe
ER
Geschichte
gung
Daher
freedom
Gra@@
peace
gesch@@
Herren
Gebiet
upon
17@@
20@@
Möglichkeiten
event
bleiben
erreicht
Tra@@
though
ad
Doch
wirtschaftlichen
situated
democratic
pa@@
sprechen
France
file
regional
sozialen
prices
gegeben
ren@@
zeigt
..
care
either
könnten
17
negotiations
material
rates
ausge@@
space
Sicherheits@@
developing
Debatte
bed
Institutionen
created
ure
AG
wenig
Man@@
consider
liches
unique
true
education
dar
ph@@
oft
looking
pay
80
music
eh@@
seen
everything
Tri@@
share
almost
states
500
Ri@@
Bi@@
big
request
tischen
thus
tigen
beach
tion@@
ling
verschiedene
vier
funds
mu@@
Pi@@
Strategie
reform
success
improve
early
book
ner
spielen
är@@
1.@@
verfügt
Bank
designed
additional
Dis@@
ie@@
parts
liegen
meet
ster@@
fundamental
climate
sion
road
ari@@
try
cost
à
dern
date
ative
foreign
according
effect
Auswirkungen
200
famous
form@@
ermöglicht
bei@@
ern@@
Damen
type
American
soon
Minuten
lu@@
besch@@
lei@@
tive
hard
links
card
term
s-@@
Dienstleistungen
mal
gemeinsame
weltweit
included
Qu@@
actually
send
Wirtschafts@@
unternehmen
gs
helfen
Berichterstatter
idea
enen
Abkommen
hatten
danken
receive
later
www.@@
French
lin@@
Park
Israel
Presidency
Su@@
act
test
understand
aten
ah@@
tragen
ER@@
living
tung
bus
ven@@
lead
pl@@
Zu
turn
accept
sc@@
erforderlich
tan@@
Paris
capital
direct
program
tic
1999
Verhandlungen
Hinblick
takes
wegen
Mitglieder
Programme
appropriate
low
center
outside
Wasser@@
geb@@
workers
fe
mentioned
Tatsache
AN@@
gesamten
mis@@
Regionen
bereit
users
Ber@@
tax
Geschäfts@@
investment
San
»
ass@@
features
ebenso
ways
mer
lan@@
cher
Ko@@
entwickelt
Zentrum
Außerdem
einzelnen
Gruppe
fragen
How
reach
ori@@
tet
IN@@
amount
table
Cor@@
run
procedure
Liste
leben
Schritt
hours
denke
wa@@
Nach@@
weiteren
doing
internationale
Y
week
majority
ance
gebracht
va
took
darum
Kolleginnen
í@@
16@@
ard
ever
chten
communication
Ergebnis
Entscheidung
throughout
gleichen
By
ieren
lässt
active
hätte
19
across
guarantee
jedem
konnte
Bereichen
significant
certainly
wor@@
traditional
Ho@@
ationen
connection
final
Änderungsanträge
legen
aware
Vereinigten
existing
Antwort
Platz
…
writing
befinden
gel
-B@@
perfect
Krise
Blick
sed
ing-@@
America
kt
Änderungsantrag
Erfolg
Turkey
Beziehungen
relations
board
Ta@@
media
Bevölkerung
context
performance
Com@@
concerns
gab
leading
Sa@@
gleichzeitig
geführt
gn@@
15@@
member
AT@@
br@@
stage
original
initiative
fahren
wichtigen
gemeinsam
customer
ments
Preis
weiß
knowledge
cu@@
My
zeigen
military
cks
jede
impact
ente
walk
body
Seit
add
So@@
ges@@
population
programmes
Bar
21
Rei@@
five
built
moment
wohl
game
&gt;
bekommen
kleine
apply
Ausdruck
heißt
Per@@
Unser
professional
although
Abgeordneten
Geld
Pre@@
bleibt
Ne@@
rec@@
Bu@@
Aufgabe
ents
ben@@
Japan
completely
tische
z.B.
Verbindung
IS@@
Türkei
tor
au
2.@@
ders
nothing
gern
Mit@@
established
Minister
reasons
ties
committee
=
code
includes
bare
community
Zum
verbunden
zeit
Government
read
decisions
equipped
fo@@
allows
Einsatz
Mal
remain
fe@@
concerning
agreements
Mor@@
Since
ys
basic
stra@@
Kontrolle
ender
meinen
II
ast@@
style
baren
culture
AR@@
Förderung
lichkeit
70
kl@@
unseres
English
enthalten
London
iert
practice
gestimmt
choice
enn@@
jobs
Projekt
sense
front
und@@
Q@@
ana
Kar@@
Verordnung
partners
ry
Court
22
fer
eu@@
model
tz@@
EN@@
No@@
neu
Forschung
out@@
internet
des@@
party
Vi@@
Ru@@
tr@@
kan@@
Jahres
ats
web
holiday
files
For@@
values
W
Do@@
demand
Damit
Lösungen
received
hand@@
IC@@
simple
Wei@@
auszu@@
einge@@
ity
develop
ba@@
Information
package
applications
ums
jedes
face
integration
Let
il
Partner
equipment
stop
fest@@
potential
Erweiterung
August
objectives
ones
entire
Behörden
Bitte
els
ales
richtig
wichtigsten
Entschließung
regarding
move
gerne
don
cor@@
dar@@
ES
Iran
o-@@
Beitrag
function
Lisbon
quickly
below
IT@@
park
benefit
bit
Nutzung
ST@@
rund
mehrere
gleich
Here
focus
fight
nice
aim
det
agricultural
12@@
concern
90
eg@@
Ausschuss
fin@@
successful
East
fest
reports
hinsichtlich
image
zurück
pp@@
mp@@
er-@@
objective
ganze
27
derzeit
enthält
cken
eigene
Russland
treatment
ven
check
ganzen
co
euro
goods
seems
South
ermöglichen
contains
return
einzu@@
AL@@
lose
kte
genommen
May
Landes
neben
Verbesserung
recently
wobei
governments
hotels
achieved
Vor
press
dy
Finally
ann@@
Au@@
ces
al-@@
tig
size
indeed
ks
Ausschusses
AS@@
en-@@
levels
Text
mind
Umwelt@@
{
series
versch@@
«
guest
mean
coming
Ergebnisse
June
Verbraucher
mat@@
Du@@
beginning
fair
National
rest
prevent
huge
Angebot
än@@
weise
added
gar
Central
str@@
isches
job
increased
ste@@
hal@@
23
computer
tungs@@
keyword
places
Gelegenheit
clean
Woche
völlig
Wort
lack
everyone
verfahren
ban@@
Design
answer
Schaffung
presented
verbessern
zusammen@@
Me@@
re-@@
RE@@
id
sites
Darüber
mm
Verwendung
anderer
dialogue
enter
14@@
Initiative
office
wirtschaftliche
Land@@
closed
cht@@
floor
Some
reviews
fördern
ier@@
consumers
note
Regierungen
Mitarbeiter
eri@@
lang
agreed
guten
entwickeln
shows
berg
verwenden
großer
relevant
highly
higher
ss@@
asked
anzu@@
Affairs
Mi@@
verfügen
balance
ship
E-@@
lage
ES@@
PC
tur@@
land@@
direction
choose
gehören
sustainable
Ukraine
ub@@
dr@@
carried
ving
sis
enable
complex
ang
ändern
lines
soziale
Interessen
La@@
nuclear
Team
fünf
H
chte
half
bestehen
rich
später
Bild
falls
sing
Familie
whose
Notwendigkeit
amendment
gas
commitment
res@@
ps
Welt@@
Wert
considered
effects
Therefore
Now
nimmt
principles
sorgen
Zeitpunkt
suchen
Themen
shown
Server
net
Änderungen
inc@@
comp@@
innovative
travel
perhaps
Spiel@@
300
Frankreich
maßnahmen
ore
nie
meinem
zunächst
13@@
server
City
EL@@
eng@@
col@@
latest
Markt@@
Management
tatsächlich
Barcelona
materials
Tage
pres@@
possibility
Erfahrung
scher
Hand@@
dra@@
setting
Web@@
Of
EC@@
Während
matters
Organisation
ant@@
programm
ano
har@@
Gesundheit
ton
Kultur
Auswahl
tete
former
Nor@@
thanks
Person
sta@@
fre@@
forms
treffen
ro
tiger
}
Herzen
details
UN@@
enz@@
angenommen
He@@
ist@@
tieren
Umgebung
Dabei
opportunities
easily
ess
came
behind
Mai
ski
Anfang
video
previous
First
double
popular
Spain
accommodation
sto@@
weiter@@
increasing
status
actions
pressure
Fahr@@
Fach@@
fallen
reduce
schriftlich
AC@@
0.@@
promote
speak
aspects
stark
response
verstehen
ations@@
lediglich
atmosphere
search
hohen
reached
ak
anti@@
ser
bisher
ying
partner
tim@@
pf@@
prepared
ort
providing
capacity
tel@@
remains
—
Mitglied
ino
äußerst
Einführung
innen
Steuer@@
creation
Africa
joint
Kampf
Juni
gesamte
genden
safe
Article
Ba@@
ism
sound
Anzahl
exchange
Meer
ies
ssen
Aktivitäten
billion
external
efficient
oil
submitted
je@@
Bel@@
produced
somit
Am@@
British
Umwelt
Italy
Bei@@
bringt
Also
bank
Museum
the@@
commercial
limited
charge
bestimmte
tiert
Wachstum
Sprache
Wahl
por@@
sts
summer
gewährleisten
gemäß
tliche
industrial
Gäste
link
gten
supply
ation@@
ese
Prozess
gives
uses
00@@
Systems
versuchen
ful
met@@
lies
protect
Wasser
obwohl
Integration
decided
ve@@
stre@@
gesetzt
kten
funding
supported
voll@@
mann
emp@@
Produktion
US-@@
scheint
priority
December
fordern
ll@@
sur@@
halte
cause
Hand
P-@@
leave
Amsterdam
Lei@@
Convention
Hoch@@
follow
fu@@
bestimmten
property
Por@@
gre@@
Lebens@@
Raum
island
Zahl
Dinge
Daten@@
Preise
restaurants
Western
enlargement
independent
can@@
Kur@@
stri@@
Kommissarin
El@@
ler@@
Bekämpfung
ess@@
zahlreiche
35
Go@@
Fortschritte
tungen
we@@
produce
enten
Te@@
ther@@
civil
Insel
ade
largest
gro@@
Euro@@
pri@@
zweite
Natur
bad
organisation
To@@
similar
Industrie
Erachtens
word
option
hohe
S-@@
systeme
consumer
leicht
structure
ence
erster
assistance
ili@@
ausgestattet
ators
bre@@
meines
CO@@
möglichkeiten
gl@@
Funktion
instrument
Jo@@
zer@@
mobile
York
größten
einschließlich
heit
Spiel
bau@@
hr@@
aufge@@
Entwicklungs@@
steps
1998
creating
movement
Gen@@
iz@@
comm@@
frei
Services
lau@@
sel@@
außerdem
teile
apartment
ines
setzt
Jahrhundert
Bestimmungen
solchen
Erklärung
Einzel@@
Position
platz
pleased
March
our@@
January
Web
Dezember
lagen
Stelle
weisen
insgesamt
UN
brought
variety
sive
rule
dadurch
regulations
führung
sagte
construction
Ha@@
General
Sozial@@
airport
j
fl@@
source
len@@
einzige
credit
hoch@@
weder
Gar@@
mel@@
Handel
vergangenen
War@@
mein
bri@@
Pa@@
af@@
conference
purpose
Pal@@
ok@@
October
Dialog
ourselves
tem
zweiten
written
Today
message
ktion
Nur
,000
activity
stability
Booking.com
van
Mehrheit
sm@@
ble
started
aufgenommen
verb@@
discussion
ground
became
Gi@@
instruments
instead
ó@@
kt@@
leider
zei@@
wer
Gewalt
distance
Linux
Anforderungen
are@@
Entscheidungen
U
paid
kosten
Investitionen
Sal@@
film
Küche
Stunden
relation
Strand
distribution
study
Punkte
sieht
interesting
ären
Vorschriften
click
Kosovo
aler
23@@
genießen
section
mittel
Aufmerksamkeit
ß
allowed
geschlossen
März
Gefahr
sent
document
Gästebewertungen
ev@@
Party
4.@@
fishing
leisten
aufzu@@
giving
une
West@@
Energie
Projekte
ju@@
St.
tool
sei@@
vol@@
agenda
Grenzen
ite
kre@@
Ste@@
Republic
tell
legislative
bezüglich
pass
statement
Macht
regards
Club
quiet
compromise
gar@@
bevor
с@@
benefits
payment
schließlich
Bereiche
base
concept
effort
lung
ness
Center
Development
procedures
Handels@@
werk
During
Villa
growing
konnten
North
DE
Freiheit
school
tors
violence
eingesetzt
neuer
damage
aktuellen
Folgen
village
gelten
weg
ou
bes@@
wenige
contribution
Many
Italian
historical
Mal@@
26
July
operation
Chi@@
stell@@
eigentlich
extra
self-@@
größte
require
CD
Wettbewerb
log@@
Regeln
item
Ni@@
drive
OS
operating
fra@@
Spanish
Landwirtschaft
zed
documents
Anfrage
wichtiger
abzu@@
digital
28
Frühstück
benötigen
integrated
gende
sports
provisions
tools
Beschäftigung
gleich@@
met
schaft
enti@@
download
Rights
durchgeführt
Meine
Firma
Bad
task
treten
types
lic@@
Oktober
Reform
zehn
build
teilen
criteria
kannst
45
Portugal
class
dung
1.
Linie
Zur
happy
Standpunkt
box
Präsidenten
Bildung
Br@@
Höhe
europäischer
ll
changed
Business
Du
forces
erwarten
Diskussion
1,@@
wählen
mal@@
immediately
Januar
alternative
Nationen
got
Site
express
nor
assi@@
University
ris@@
Ti@@
Although
sions
Groß@@
star@@
ill@@
genannten
Sk@@
six
challenges
allein
ality
kurz
goes
official
zone
Heute
hinter
highest
Musik
draft
elements
apartments
fa@@
getan
equal
era
late
IS
yer
chen@@
Your
erungs@@
Gemeinschafts@@
eher
ihres
San@@
employees
Centre
West
parking
gr@@
tro@@
Berichts
Si@@
na
angesichts
sofort
app@@
transparency
bau
helpful
ik
Furthermore
avoid
round
Gründen
Ju@@
sor@@
Fehler
Flug@@
Transparenz
friends
Wel@@
rise
Sache
reading
Op@@
train
öffentliche
Sinne
bra@@
Personal
Ger@@
analysis
erneut
yp@@
daily
alte
Bemühungen
nahe
zwei@@
lower
processes
tel
applied
Öffentlichkeit
begrüße
offering
Ansatz
numerous
bl@@
Ser@@
tsch@@
pr@@
1997
reality
finally
ga
consequences
elections
Luft@@
bathroom
bel
RO@@
Schlusselwortern
Präsidentschaft
az@@
Auffassung
Ben@@
Ra@@
eben
Gr@@
trans@@
historic
geworden
review
ör@@
poverty
Bilder
Besch@@
requires
Flughafen
za
gefunden
speed
Wi@@
5.@@
talk
conflict
MP@@
See
beitragen
stellung
Kraft
tt@@
vel@@
king
efficiency
labour
sting
lives
beyond
star
morgen
offered
lernen
ismus
Urlaub
AD@@
solidarity
son@@
hält
Kinder@@
ya
sport
entsprechenden
Restaurants
diejenigen
modified
colleagues
Verkehrs@@
sum@@
Fällen
death
saying
Ober@@
Room
tlich
freien
persons
verhindern
expect
ini
@
Do
Dateien
Juli
medi@@
volle
Bal@@
wine
poor
gender
bur@@
behandelt
ideas
ini@@
tlichen
Druck
paar
pu@@
Natürlich
Monaten
Kor@@
fine
fol@@
implemented
wanted
minimum
Tor@@
useful
Tur@@
sted
bs
practical
published
ständig
draw
hätten
Even
clients
con
phone
Mediterranean
shopping
erfolgt
ron@@
ßen
vers@@
stimmen
dan@@
terrorism
establish
geh@@
congratulate
illegal
sektor
entsprechend
Tre@@
starting
Tagen
crucial
fil@@
Atmosphäre
learn
Debian
Bürgern
stands
news
tomorrow
WTO
carry
Basis
kennen
secure
cs
berücksichtigt
weeks
sales
richtige
Behandlung
technologies
Hotel@@
ment@@
­
Tagesordnung
OR@@
comprehensive
Fi@@
Har@@
vergessen
tik@@
sal@@
Gesundheits@@
wieder@@
Austria
transfer
ce@@
Tat
player
Sport@@
Energie@@
ide@@
mm@@
lesen
Staats@@
While
warum
Den
Dar@@
anderem
besondere
Vo@@
organisations
rä@@
Preis@@
hoch
technischen
Mittel@@
prä@@
Selbst@@
minute
Min@@
reduction
acc@@
options
modernen
ably
monitoring
folgen
port
sometimes
ement
maximum
versucht
machine
frage
Microsoft
LE@@
deutschen
A-@@
lin
head
ke@@
Bürgerinnen
win@@
Bundes@@
oben
3.@@
ff
Unter
vertreten
reference
amp@@
leaders
pan@@
morning
zahlen
hold
Änderung
denken
plant
Bri@@
Italien
Stadt@@
probably
überhaupt
worldwide
voting
inn@@
players
Nr.
anything
caused
Lissabon
tn@@
Fu@@
Lassen
Amendment
ord@@
schließen
Le
lie@@
begin
games
Republik
challenge
alone
Is
Chinese
verantwortlich
historischen
month
street
Viele
Gro@@
flo@@
Sicht
ut
Beginn
anders
Ban@@
beste
email
pen@@
gesehen
interested
Mag@@
raum
Aufenthalt
Forschungs@@
gew@@
ga@@
erklärt
kti@@
Ressourcen
B.
annual
cities
häufig
Spanien
sches
erfolgreich
plans
Fest@@
lösen
reichen
Vergangenheit
neues
Finanzierung
ür@@
RA@@
barkeit
ready
200@@
cut
Rechtsvorschriften
long-term
gewesen
chance
Konferenz
vollständig
ages
wal@@
languages
zahlreichen
Technologie
erwartet
ktionen
I-@@
mountain
Datei
stelle
Wochen
thought
waste
zer
bin@@
jeweiligen
welches
Kultur@@
sa
child
Dr.
erfüllen
Zweitens
farmers
banks
IM@@
Airport
Fe@@
#
Wahl@@
2-@@
äre
ette
wahrscheinlich
Gruppen
Fre@@
erungen
unten
Erfahrungen
braucht
release
leg@@
cur@@
ously
1996
Thank
Moreover
Produkt@@
1-@@
lost
Fund
worked
ungsp@@
selection
´
ien
Ku@@
garden
Schritte
extent
EC
ture
kam
geschaffen
FR
methods
jo@@
on-@@
ich@@
ET@@
ics
Vertrauen
ss
scientific
una
zumindest
Inhalt
Werte
relating
Conference
31
ada
accession
stets
businesses
accordance
Lin@@
endlich
green
genutzt
advantage
mention
method
schützen
walking
images
ier
verpflichtet
sectors
genug
ulation
Hei@@
comfort
Cas@@
strategic
tor@@
Natur@@
Aspekte
ack@@
cre@@
32
teten
außerhalb
Herausforderungen
ai@@
Kunst@@
Wein@@
sol@@
powers
folgt
edi@@
fields
gend
Mat@@
despite
danke
lat@@
processing
gan@@
Directive
Berg@@
Not
san@@
erter
Sti@@
Einige
influence
Allerdings
fahr@@
hol@@
5-@@
legt
heutigen
bet@@
hören
gte
tics
fish
Russian
seines
Angelegenheit
Dazu
abge@@
privaten
US@@
letzte
menu
Kunden@@
visitors
raised
loss
neu@@
Wohn@@
innovation
Benutzer
Ireland
amerikanischen
persönlichen
motion
alt
Security
fac@@
cally
25@@
mes
Only
del@@
flexible
vollen
ology
separate
Im@@
wert
Gebäude
Mu@@
erlaubt
doubt
hen
wing
senden
Pri@@
Public
trying
Parteien
bessere
Schwierigkeiten
75
trotz
è@@
Obwohl
accepted
implement
Berichterstatterin
ir
join
Google
absolutely
gest@@
od@@
sechs
Falls
regime
ausschließlich
Star
zation
Staat
Spieler
post@@
map
Sonder@@
™
Col@@
bilden
demands
Ap@@
justice
ole
Neben
Bur@@
folgenden
°
deten
Arbeitnehmer
Gesamt@@
Hinsicht
scope
Ur@@
alität
Secondly
overall
moderne
Dann
Gegen@@
UK
critical
Wer
borders
schwer
affected
cra@@
²
negative
Milliarden
placed
enz
Ihres
tal@@
demokratischen
Folge
Einrichtung
Bre@@
More
cover
verkehr
Praxis
oren
Krieg
ns
swimming
contract
Vertreter
yourself
Prozent
länder
ast
übernehmen
entscheiden
intended
Free
gekommen
laufen
ls
e-mail
cli@@
zudem
getting
Its
usually
running
gang
bitten
wo@@
Denn
SP@@
Z
automatisch
Wunsch
Ac@@
EM@@
Angelegenheiten
Arbeitsplätze
и@@
beide
uri@@
Grand
erinnern
Computer
richten
anti-@@
ki@@
heard
Opfer
Instrument
target
calls
suitable
love
Indeed
30@@
Aufgaben
bewusst
generation
Afghanistan
aff@@
reforms
Red
Station
rel@@
begrüßen
Solidarität
g-@@
deine
adopt
Bus@@
kaum
says
warm
currency
relationship
Privat@@
Dra@@
gebiet
rich@@
nu@@
Bra@@
gabe
sierung
in-@@
mainly
ierung
ear@@
evening
Zusammen@@
tru@@
allgemeinen
administration
29
Frieden
freie
nt
SA@@
Ö@@
initiatives
committed
erkennen
gelegen
namely
Systeme
increasingly
3-@@
Organisationen
ün@@
Ka@@
Armut
mor@@
installation
opening
President-in-Office
representatives
om
tour
freuen
terrace
vital
cal
maintain
Annahme
expressed
El
traffic
planning
Leute
Pan@@
sitting
talking
normal
tw@@
ität
stand@@
border
Wieder@@
proper
union
6.@@
ures
bald
Nun
Erstens
Cre@@
mission
born
produ@@
tation
structural
sha@@
ical
darstellt
Verfassung
größere
endes
stress
benutzt
improved
students
teil
vorgeschlagen
eindeutig
qui@@
haus
Karte
families
approved
serve
Agenda
ek
Sitzung
goal
rechts
Anti@@
sage
signed
automatically
correct
elt
Verpflichtungen
Sen@@
ws
comments
nationale
Hause
zusätzliche
ado
uni@@
industrie
Reise@@
competitive
powerful
onen
zes
People
Anstrengungen
Außen@@
Falle
CH@@
cker
dri@@
Online-@@
tourist
confidence
Funktionen
Win@@
DVD
zeiten
Costa
ah
Idee
Hu@@
Sub@@
infrastructure
plus
bil@@
Iraq
reduced
unbedingt
globalen
Da@@
rechte
India
decide
Hel@@
tionen
Tran@@
fan@@
beginnen
delivery
feature
Protokoll
entspricht
erenden
unemployment
protected
überzeugt
Fer@@
Enterprise
Kriterien
stärker
super@@
fun@@
photo
collection
Partei
ach
administrative
lt
ße
supports
cohesion
Ca@@
screen
Zustimmung
stu@@
Wahlen
400
4-@@
aktuelle
gesprochen
š@@
began
offen
ren
stable
format
extensive
covered
mindestens
served
Informations@@
Schul@@
schaften
emissions
Produktions@@
eter
langen
rein@@
circumstances
conclusion
sicherheit
а@@
gleiche
anischen
Ist
Wann
founded
sources
Nations
well-@@
Vereinbarung
mark
01
tions@@
Verwaltung
contribute
lich@@
sign
Ä@@
worth
Osten
Reformen
ational
functions
rei@@
pleasant
Office
genannt
AM@@
priorities
vorgelegt
iger
zug
selbstverständlich
likely
unterschiedlichen
financing
electronic
introduced
gezeigt
nor@@
UR@@
Terrorismus
defined
EL
prozess
Vorteile
min
Gipfel
plants
ban
Just
mittel@@
else
att@@
effectively
larger
Ak@@
gs@@
Anerkennung
prüfen
Each
white
encourage
cal@@
speaking
ised
Kre@@
glauben
stat@@
Fra@@
ral
understanding
gerecht
Greece
Inhalte
ensuring
DI@@
dringend
exist
Produkten
ars
erwähnt
crime
isch@@
ko
Qualitäts@@
mehreren
Technologien
Code
laws
cia
risks
tabled
verfügbar
schutz
ase
Stabilität
150
managed
wünschen
track
klicken
fresh
ame
Haushalt
positions
ved
wider@@
Homepage
entsprechende
Binnenmarkt
Kern@@
Straße
whom
listed
Cal@@
Mc@@
PL
opened
Besuch
Asia
ik@@
Standard
ue
Swiss
War
victims
erk@@
ple@@
detailed
wonderful
alisierung
played
At@@
ice
tä@@
wesentlich
Zudem
ha
Sektor
han@@
Produkt
participation
Ausschuß
Why
Kal@@
Rec@@
ara
Test@@
chs
....
2020
appear
E-Mail
stated
cul@@
Val@@
ti
berücksichtigen
erfahren
fort@@
agriculture
programs
D-@@
uli@@
hoffen
optim@@
Prä@@
shi@@
Mark@@
testen
IL@@
Schließlich
record
multi@@
sam@@
Über
las
wrong
animals
Plan@@
burg
Sommer
Comp@@
hinweisen
camera
nachdem
discuss
bal@@
arbeitet
erende
Volk
kommenden
paper
exactly
Frankfurt
möglicherweise
debt
transparent
bestimmt
work@@
sse
selected
manner
1995
De
50@@
limit
Zunächst
specifically
Then
siert
si
ki
becoming
won
beds
akzeptieren
о@@
Durchführung
regular
aimed
markt
Mitteilung
partnership
income
door
Nord@@
purposes
Sh@@
ME@@
Medi@@
Plan
Tier@@
linked
benutzen
metres
Bor@@
zeit@@
aktiv
ley
back@@
expected
February
vision
technische
erzielt
wants
votes
rü@@
represents
developments
ca@@
és
ang@@
sicherzustellen
discussed
rural
referred
Chance
bestehenden
fri@@
Anwendungen
fahrt
sec@@
Sol@@
le-@@
besonderen
fle@@
measure
id@@
Augen
zentrum
assessment
Sea
went
tic@@
poli@@
Medien
getroffen
gelegt
las@@
cy@@
Nicht
rop@@
discussions
dienen
laden
far@@
Fin@@
hor@@
Unterkategorien
ato
scale
marketing
Suche
euch
Lan@@
geändert
precisely
fying
warten
igen
sub-categories
erg@@
thousands
siehe
Einrichtungen
trägt
entry
acht
bedarf
DA@@
teil@@
fellow
Apartments
police
Rooms
spacious
Ski@@
shop
inside
cas@@
unver@@
bro@@
möglichen
sufficient
essen
umgesetzt
Nutzen
co-@@
ig
spend
Wettbewerbsfähigkeit
ration
zuletzt
Kan@@
medical
person@@
enterprises
tures
Haltung
otherwise
erfüllt
tisch
ish
ID@@
introduction
Standards
Bild@@
stoffe
LA@@
earlier
wenden
notwendigen
imp@@
arbeit
operations
finanziellen
Kontakt
kitchen
client
Kunst
Social
Cam@@
ft@@
gener@@
reich@@
followed
Middle
playing
Agreement
dient
liber@@
budgetary
houses
exclusive
Em@@
lig
Zeichen
Einfluss
stimme
facing
connected
elegant
closely
vari@@
tional
alism
achten
Monate
Bas@@
Board
Ausbildung
winter
anderes
voller
represent
Vol@@
schreiben
rent
á
lä@@
pol@@
eingerichtet
ots
jene
oll@@
stone
hu@@
losen
Tro@@
path
NATO
considerable
stei@@
festgelegt
Char@@
strengthen
select
atic
jederzeit
buildings
elles
ergreifen
Met@@
Most
vermeiden
ay
Best
ON
Switzerland
ner@@
Christian
hour
Gal@@
24@@
Super@@
ften
happen
cher@@
fla@@
beziehen
pat@@
Green
She
lö@@
save
Klein@@
institutional
zen@@
äu@@
blo@@
degree
spar@@
Kindern
Anspruch
shops
supporting
darunter
Pra@@
John
guidelines
shower
geeignet
lichem
Film
Schutz@@
rat@@
season
verfolgen
pe
ingly
Bro@@
Vielfalt
Meter
so-called
discrimination
dec@@
Human
pra@@
stärken
Menschenrechts@@
politischer
Wal@@
dlich
jeweils
purchase
Innovation
immigration
improving
sion@@
Gesch@@
remember
sionen
Zei@@
networks
stadt
Menge
ica
telephone
nisse
High
außer
components
7.@@
ark@@
daten
acts
angezeigt
handeln
erhöhen
Roma
wel@@
Video
Star@@
ey
speech
hear
Ü@@
sicherlich
ON@@
buy
vern@@
C-@@
Policy
Konzept
übernachten
erzielen
His
Schweiz
experts
cards
Pu@@
Webseite
welcher
broad
Czech
http
average
fun
entschieden
ckt
stellte
teilweise
Leistungen
Vertrags
cuisine
unbe@@
,@@
&apos;ll
aren
gem
entweder
funktioniert
Spa
fs
hon@@
ologie
gelangen
thinking
Familien
besuchen
fällt
ass
typical
zo@@
stock
tourism
Stand
spielt
suggest
schi@@
ire
Installation
Fischerei@@
char@@
wären
fung
verbessert
spricht
gave
Economic
seem
Familien@@
pul@@
trust
2011
properly
Sprachen
digen
reception
Name
presence
items
rit@@
wood
entirely
Because
Unfortunately
mü@@
IP
Februar
Instrumente
Jetzt
Abschließend
relate
inen
element
ction
Research
Wege
klare
werte
z.
provision
sagt
lungen
erleben
Warum
Stimme
ID
competitiveness
Pe@@
spirit
core
Verwaltungs@@
richtigen
spor@@
Pol@@
fied
Tätigkeit
rat
Veränderungen
ine@@
Kenntnis
Leider
Garten
ella
generally
uren
Vereinten
gebaut
ek@@
ef@@
rin@@
Berichte
dé@@
Arbeiten
Poland
spon@@
com
difference
stes
refer
hab@@
Click
kur@@
Abschluss
oo@@
presidency
lands
Forderung
Pas@@
ona
erstellt
bodies
Modell
bes
Fo@@
summit
display
hervor@@
Initiativen
feld
machines
IN
dro@@
tradition
actual
zing
Brussels
speziell
Forum
reasonable
ausdrücklich
Mitte
ently
authority
ian
Bürger@@
che@@
prior
ged
vorgesehen
wollte
domestic
Vergleich
advanced
coordination
informed
politics
Zeiten
Hor@@
fel@@
95
dagegen
dealing
schutz@@
betonen
Ob@@
Vielen
Plat@@
PT
Adresse
informieren
win
meetings
kom@@
district
character
hot
Street
Regelung
Teile
Engagement
Once
Abgeordnete
difficulties
cap@@
Irak
vehicles
plan@@
Ausgaben
parliamentary
animal
Internet@@
Besucher
condition
les@@
Great
Post@@
coffee
experienced
My@@
flexibility
appears
tt
täglich
durchaus
dete
bedingungen
möglichst
gewinnen
numbers
peaceful
applies
ze@@
Musik@@
zentrale
beschlossen
Transport
told
Herausforderung
All@@
estate
fisheries
becomes
cl@@
Dienste
vorhanden
sets
consideration
amen
permanent
Mitgliedstaat
spe@@
sem@@
lig@@
wenigen
spiel@@
ants
According
Angaben
Mer@@
Gel@@
lokalen
resort
sign@@
ye
haft
rus@@
Zeit@@
Breakfast
99
nte
Des@@
Dec@@
ath
Werk@@
mark@@
Ziel@@
dly
gefordert
origin
ory
Golf
tere
heiten
Klicken
Zeitraum
ty@@
Wer@@
Not@@
angeboten
Komfort
Pap@@
36
Indi@@
Währung
break
dank
Air
Durch@@
benötigt
courses
Mis@@
konkrete
Gas@@
sieren
Druck@@
stein
wahr@@
monetary
asi@@
--
Großbritannien
ingen
ink
ware
election
stic
easier
Hauses
freue
establishment
veröffentlicht
Jahrhunderts
Multi@@
34
lie
economies
picture
trip
ours
God
Dem@@
Can@@
finanzielle
ash@@
starke
gruppe
database
pla@@
analy@@
high-@@
threat
ungs-
gem@@
Gebieten
fixed
structures
führenden
combat
dliche
art@@
aspect
ige
Nieder@@
konzentrieren
practices
Net@@
führte
ordnung
Wissen
leader
gewährleistet
AB@@
bor@@
aims
ched
forget
kulturellen
geln
gene
weight
ination
etc.
Dennoch
Status
ships
tätig
erfolgen
Auto
attempt
Terrasse
models
darstellen
nächste
Comm@@
ker@@
Tour
continued
arten
sides
entstehen
Madrid
erscheint
val@@
Beitritt
south
län@@
spent
erstellen
failure
stehenden
tät
sou@@
Programms
Herstellung
48
Nachfolgend
satz
combination
myself
flow
Kingdom
club
AG@@
Online
buffet
dre@@
Worte
erklären
med
propose
exp@@
translation
glich
seriously
fund
Del@@
geschrieben
tage
Sur@@
dennoch
Mas@@
ery
ct
Einigung
Association
Rede
syn@@
Cap@@
sters
unabhängig
Antrag
Zweifel
cking
schönen
associated
detail
post
Kirche
steigen
е@@
attractive
ater
vis@@
sischen
air@@
Mio.
Santa
betrachtet
gruppen
oni@@
nis@@
Zweck
ited
promoting
Klima@@
anyone
schwierig
himself
ancient
Spezi@@
Res@@
Sie@@
ahead
relax
unterschiedliche
Forderungen
off@@
cke
Kno@@
Pakistan
welt
д@@
gegründet
differences
studies
Open
sta
Fran@@
reducing
reservation
brand
availability
finance
fähigkeit
web@@
Belarus
anlagen
ester
Sehr
Kom@@
announced
eingehen
grounds
IF@@
Analyse
beaches
Geld@@
ehr@@
changing
gain
umfasst
reicht
98
pre-@@
Universität
Regel
impossible
Österreich
carefully
sun@@
phase
Einhaltung
released
Mac@@
inform@@
Liefer@@
Wor@@
gestalten
voice
net@@
absolut
humanitarian
balanced
Stellungnahme
museum
clo@@
Fl@@
Mess@@
Aufnahme
geschehen
Ã
ca.
booking
shared
ziert
diskutieren
sho@@
charged
Stra@@
Firstly
uner@@
Kl@@
consumption
session
dangerous
cars
heraus@@
opposition
ring
Dollar
Griechenland
immediate
Sehenswürdigkeiten
enst@@
kaufen
nahme
producers
names
Uni@@
einiger
geleistet
happened
Irish
Private
ists
defence
agencies
learning
hands
Texte
statements
architecture
duty
books
liebe
race
dic@@
EADS
As@@
concrete
implementing
fire
keeping
Fonds
fore@@
läuft
band
Hal@@
schul@@
Tr@@
trading
gers
usw.
exhibition
ely
Gleichzeitig
wall
Abend
Trade
Achtung
England
Stellen
-F@@
regi@@
regionalen
rück@@
iti@@
Ki@@
zimmer
halt
istischen
ertes
Health
Kommunikation
river
arrival
Sil@@
inform
advance
folgende
pictures
eck@@
lets
truly
respond
Angesichts
Vielzahl
instance
Guest
article
37
amm@@
lia
raise
button
introduce
criminal
Due
MA@@
Prime
Sorge
profitieren
ländern
evidence
ée
described
Hersteller
Entwicklungen
Every
Fuß
Cro@@
recommend
Trans@@
don@@
verfolgt
bit@@
Download
Paket
Hintergrund
skills
ning
meters
Aspekt
Sport
improvement
garantiert
überprüfen
600
cy
Prioritäten
registered
tten
Dokument
ising
one-@@
Europeans
Links
ick
zy@@
elected
relaxing
Voll@@
Arten
recognition
guarantees
Casino
passed
calling
ISO
bas@@
port@@
feststellen
Polen
bt
genuine
de-@@
spending
standing
т@@
tik
possibilities
nearby
chi@@
einander
continues
verlassen
exc@@
werke
Arbeitslosigkeit
Gei@@
sale
ei
Very
System@@
Afrika
Rechnung
33
у@@
reliable
television
installed
wishes
membership
kosten@@
seite
CA@@
Ja
Rot@@
sort
weiterer
pal@@
Gast@@
unacceptable
combined
devices
Partnerschaft
Stil
persönlich
gef@@
и
firm
Mann
packages
hom@@
Rad@@
gutes
sichern
campaign
color
istische
Stärkung
ack
figures
bauen
dor@@
ai
adoption
empfehlen
felt
Foundation
miteinander
religious
1994
Seine
seek
completed
fiscal
reg@@
Nacht
übrigen
enables
bezeichnet
cat@@
allowing
unless
territory
orders
ausschuss
greatest
black
African
strongly
zeichnet
Indien
kept
insurance
Moment
gegenwärtig
sensitive
Kat@@
participate
tasks
gent@@
Gesetz
Deutsche
gkeit
angesprochen
IR@@
st-@@
tly
Leistung
Betrieb
sli@@
Grenz@@
surrounding
Lesung
Bedürfnisse
greifen
eingeführt
frei@@
k-@@
•
ante
chan@@
obtain
Problemen
2,@@
aci@@
manage
französischen
Zwei@@
Ideen
Manager
Formen
gegenwärtigen
zeichen
Beschreibung
ander@@
contain
cho@@
hingewiesen
Justice
unfortunately
erhält
Tradition
bars
zz@@
Titel
court
closer
überall
Gemeinsamen
Irland
tend
zufrieden
groß
flu@@
Aussch@@
definition
tiges
fear
anten
positiv
surface
fordert
Another
demokratische
attractions
beginnt
ering
ological
Barroso
middle
cro@@
Banken
desire
absolute
mag
guide
9.@@
geschützt
38
ken@@
Sinn
Player
0-@@
komplett
coast
Elemente
einsetzen
Last
Richtlinien
OL@@
tom@@
dad
danach
dedicated
Open@@
Priorität
compared
dy@@
unterstütze
Such
etz@@
werk@@
alist
platform
Agrar@@
Überwachung
sun
TR@@
Hamburg
window
großes
Dor@@
beauty
w-@@
signal
to-@@
leistungs@@
piece
listen
We@@
wagen
Pat@@
tens
fälle
lige
Ter@@
800
aufmerksam
keinerlei
umfassende
Fisch@@
Federal
Bio@@
indi@@
Vienna
vo
Jeder
Turkish
ausreichend
lo
einfache
kers
End@@
interface
bear
Regelungen
wasser@@
cle@@
forced
Geschäftsordnung
erforderlichen
ay@@
corporate
mehr@@
punkt
marked
pun@@
Hol@@
route
kes
enormous
claims
besitzt
größeren
Fortschritt
hy@@
Meiner
cm
gezogen
Bewertung
Anteil
Can
failed
sämtliche
spezielle
Verhältnis
bestätigt
biggest
beteiligt
Technik
Märkte
55
gri@@
ate@@
vorliegenden
Kritik
Ei@@
ön@@
Geb@@
individuals
an-@@
AL
dat@@
export
ands
square
perspective
haften
accessible
länger
Größe
storage
entitled
09
comment
assen
.de
luxury
moving
Eastern
publi@@
science
licherweise
onto
sonst
ically
tests
extended
Hin@@
Entwurf
holidays
Stu@@
ths
Poli@@
Greek
Home
National@@
exercise
Michael
install
ins@@
totally
device
Prinzip
story
Inn
wind
Hi@@
trag@@
nennen
Nevertheless
convinced
write
tal
Beschäftigungs@@
rufen
railway
schöne
ined
Brüssel
rau@@
wunder@@
Innen@@
mittels
val
Democrats
iel@@
vier@@
Verpflichtung
Ost@@
straße
urgent
hel@@
institution
internationaler
ends
Mil@@
memory
kostenlos
Yet
sation
fall@@
advertising
č@@
verbundenen
nten
Syn@@
hof
dem@@
hergestellt
mail
offensichtlich
bul@@
host
gelöst
garantieren
wil@@
Globalisierung
factors
ständigen
tou@@
ssi@@
Agentur
discover
controls
Maße
church
cent@@
vit@@
Haup@@
Unternehmens@@
ath@@
flight
starken
ward
engine
Mitteln
advice
drawn
organization
äl@@
Worten
Treffen
expensive
bath
ances
Bush
sel
1990
amb@@
alismus
Betriebs@@
führ@@
Far@@
Netherlands
initial
Institute
08
tz
kraft
Fotos
Lake
vers
bekannten
payments
ka@@
Austrian
karte
Kraft@@
seh@@
disease
organised
chosen
stattfinden
granted
Unterkunft
dienst
weapons
bahn
Altstadt
nation
Kol@@
beinhaltet
unable
zusätzlich
lar@@
Gründe
ams
Atom@@
fern
Studio
reisen
ener
schlagen
Company
Motor@@
Men@@
tig@@
Verkehr
establishing
Ir@@
Monat
limits
stan@@
outcome
ligen
ersch@@
onn@@
ero@@
oh@@
mögliche
übertragen
contrary
28@@
Festival
Umfang
zählen
deutsche
perfectly
&apos;re
linie
Kenn@@
Han@@
zeu@@
attack
wirken
Wa@@
update
Shi@@
р@@
6-@@
Tal@@
conclusions
Resort
adi@@
ane
print
Niveau
wesentlichen
Erklärungen
saw
tar@@
mas@@
Control
tried
solcher
sell
massive
mountains
posi@@
7-@@
Lam@@
zw@@
britischen
zufolge
rechten
Beteiligung
ot
Pen@@
Palace
neither
betrachten
ku@@
rightly
fit
furnished
Generation
Thus
ambitious
OT@@
commitments
verloren
zung
water@@
ov@@
Gott
Are
tical
zuvor
ierte
Volks@@
valid
Foreign
lag
Gegensatz
finde
ining
olo@@
vehicle
Risiken
background
Patienten
eigen@@
existence
entsprechen
successfully
Reise
berei@@
sat@@
minister
Politiker
relativ
fic@@
ierten
agency
convenient
Sta@@
maintenance
Europäer
Note
artists
ular
Entschließungsantrag
gelungen
äch@@
komm@@
Schlüssel@@
Option
Flexibilität
register
asylum
speziellen
Methode
Data
pos@@
stru@@
Bildungs@@
ust
Kompromiss
ther
honourable
claim
Gre@@
approximately
Palestinian
Eindruck
unto
Mitgliedern
ata
Aktionen
remind
fach@@
8.@@
candidate
Ereignisse
para
mei@@
ol
wider
older
gehalten
Mel@@
tin
ç@@
nation@@
Aussicht
07
sy@@
gegangen
Sprach@@
Weitere
achieving
TH@@
asking
Absatz
Q
Beim
rechtlichen
constantly
yst@@
PHP
abgeschlossen
cou@@
Latin
m2
surrounded
Peter
kul@@
lungs@@
ett@@
geöffnet
obviously
jüngsten
deliver
ía
targets
Aufbau
monitor
pas@@
Nachdem
O-@@
intervention
lichkeiten
continuing
lake
manchmal
utili@@
guter
produktion
daraus
Bis
schafts@@
unit
stoff
nom@@
goals
expression
mäßig
x-@@
category
Wirkung
paragraph
Located
chs@@
Sor@@
dungen
down@@
Begriff
Verständnis
foot
Air@@
Innen
Empfehlungen
independence
touch
informiert
erhöht
IG@@
xi@@
Erde
reden
promotion
colleague
outstanding
stal@@
nationaler
stations
Projekt@@
alisation
fort
d.
Gebiete
Card
wn
nung
loc@@
contents
Öl@@
Hon@@
hauptsächlich
title
aircraft
laid
Na@@
gets
Constitution
в@@
Dan@@
ch-@@
Haus@@
Eigen@@
rep@@
Bet@@
Realität
erfordert
fen@@
deep
wh@@
Lie@@
someone
operate
öl@@
suite
spiel
bildung
Versch@@
fte
Anlagen
Start
ideale
Meeres@@
ischem
Botschaft
photos
obligations
vous
verk@@
dia
factor
Phase
advantages
0,@@
Obama
origin@@
Eing@@
ching
Mand@@
Media
ri
north
dom@@
staatlichen
Zahlungs@@
yesterday
physical
III
Hoffnung
store
rech@@
96
SI@@
Nutzer
Risiko
beachten
Those
Führung
Farb@@
planned
contained
Zi@@
SE@@
Regulation
м@@
fühlen
0er
Tu@@
intensive
genen
fication
te-@@
mobili@@
binding
ord
boo@@
Fol@@
emb@@
qualified
obvious
counter@@
dge
berühmten
damals
Sar@@
ink@@
tsp@@
Inseln
recommendations
looks
waiting
öh@@
ari
harmon@@
1992
decades
wichtigste
Grundsatz
mass
Mus@@
allgemeine
nearly
PR@@
Doppel@@
participants
equality
Market
Agency
Tages@@
hafte
bringing
Teilen
denk@@
sobald
capable
geschieht
ports
Vom
situations
ks@@
Dom@@
Off@@
ee
governance
Both
65
expenditure
fal@@
recovery
gol@@
oral
globale
kar@@
testing
consists
staaten
Rel@@
Rome
lang@@
communities
putting
jungen
einzigen
führer
tab@@
setzung
pointed
landscape
Paul
seeking
Winter@@
hängt
merely
species
hilfe
regelmäßig
legung
MS
Beach
ECU
dimension
manufacturing
stoff@@
Süd@@
Hinweis
sions@@
plat@@
wirtschaft
Einkaufs@@
Firmen
Grunde
fonds
prevention
smaller
aufen
Bedarf
е
satellite
servi@@
leads
trifft
einverstanden
Ren@@
festgestellt
nachhaltige
AS
Fraktionen
fy
stor@@
Beihilfen
Hauptstadt
persönliche
Voraussetzungen
dynamic
н@@
trä@@
read@@
fi
Vorteil
substantial
Energy
Gegenteil
Hälfte
h.
Other
mechanism
medium-sized
Ebenso
Square
Dimension
eli@@
Is@@
disposal
sicht
soft
Korea
sprache
registration
Pro
s.@@
consistent
64
,00
liste
High@@
politisch
zugleich
tag
turned
Ham@@
mode
vorgeschlagenen
Welche
bewegen
Gri@@
ré@@
entgegen@@
etten
betroffen
Städte
Energi@@
Bestandteil
jährlich
contemporary
Summit
42
Wettbewerbs@@
eck
Regi@@
fron@@
dos
ge-@@
Any
guaranteed
browser
acceptable
causes
named
97
echte
Infrastruktur
extend
Out@@
anbieten
Vertrags@@
arms
kor@@
rapid
Veranstaltungen
glass
meaning
Prüfung
Auto@@
Global
spezi@@
Ul@@
driving
el-@@
schneller
Teil@@
brings
Fa@@
Landschaft
ables
Klimaanlage
Royal
praktisch
spa
wir@@
versions
traditionellen
aries
yl@@
compliance
serves
wodurch
technological
Internationalen
my@@
determined
examples
alised
flü@@
Holz@@
stabili@@
Rules
tte
Ruhe
Farben
Ausland
fand
Winter
resulting
spread
betroffenen
regeln
Angebote
beschäftigt
Rau@@
minim@@
.00
voran@@
treated
herzlich
Thanks
Sweden
Zahlen
Time
sia
wn@@
by@@
primary
erin
ately
hau@@
seven
golf
yn@@
The@@
conclude
19.
Kontroll@@
Island
woh@@
ola
mut@@
object
Details
van@@
enter@@
vorschlagen
Buch
Bon@@
Dienst
gewählt
Unabhängigkeit
na@@
Environment
bers
atische
optimal
Zimmern
pleasure
spaces
adequate
wait
Gesetzgebung
block
Erhöhung
liability
früher
stellungen
attacks
patients
fuel
Aufgrund
Nu@@
Struktur
addressed
explain
Martin
05
temp@@
EU@@
forest
JavaScript
Trotz
vollkommen
welchen
stoffen
weiteres
begann
OS@@
responsibilities
Material
gesellschaft
u.
kürzlich
Stat@@
nations
kun@@
run@@
junge
49
entwicklung
Tex@@
radio
copy
Format
industries
strengthening
association
ous@@
besseren
THE
diversity
strategie
extreme
Sonnen@@
Überprüfung
bot@@
asse
Charakter
multi-@@
nis
zurückzu@@
Königreich
Alliance
fällen
einerseits
ming
bedroom
Rom@@
alo@@
schools
zählt
diskutiert
talks
Ratspräsident
cer@@
Bus
nden
Unternehmens
identity
Serie
ba
reagieren
Stadtzentrum
sky
IA
miss@@
fur@@
technik
Methoden
Liberalisierung
F-@@
primarily
Quali@@
remove
Laufe
taste
nah@@
sum
entered
evaluation
Pool
Lau@@
GDP
temporary
Männer
urban
schön
notice
Nice
ion
kinds
Mindest@@
lots
gg@@
250
steel
Enjoy
ye@@
previously
thereby
Financial
Bewegung
bezieht
ING
Dutch
Gästen
anda
freiheit
investments
liefern
Kr@@
multiple
requested
bing
ball
es-@@
sam
Licht
consensus
quick
digung
mb@@
accounts
einzelne
Handel@@
imm@@
Mehr
ppen
Diskriminierung
Teilnehmer
Liebe
Prin@@
160
discussing
Romania
л@@
tour@@
ßt
delay
Link
stimmt
explo@@
spezifischen
dest@@
abhängig
squ@@
Absch@@
T-@@
mil@@
esen
Mad@@
ñ@@
delivered
bequem
ly@@
bereiche
26@@
Grenze
head@@
gone
cam@@
Netzwerk
angeht
Klimawandel
skin
Waren
Vil@@
ena
Fähigkeit
umwelt@@
ktions@@
85
Leistungs@@
Ordnung
PL@@
1993
leadership
seitens
barer
all-@@
weg@@
8-@@
Despite
representative
Fälle
pension
bildet
competence
willing
ele@@
pour
Suite
Dokumente
opposite
Pic@@
Westen
rail
Nicht@@
Wander@@
visible
intensi@@
Koordinierung
danger
Industri@@
sten@@
к@@
default
akzeptiert
Bank@@
feeling
Ansch@@
Tiere
ffen
Reaktion
Maria
IB@@
positiven
Brenn@@
Minutes
controlled
southern
manufacturers
holding
Freunde
betont
prepare
atives
tem@@
regionale
alle@@
Anpassung
Militär@@
preis
eng
tenden
dealt
Versuch
spezifische
Beh@@
leiden
gemein@@
Kombination
Lehr@@
rati@@
letter
dol@@
Unterschiede
sicherstellen
Gefühl
Willen
affect
SO@@
Amerika
set@@
wealth
Pop@@
urge
PH@@
ländlichen
Day
wirkt
forum
speakers
sanctions
moved
demo@@
wards
PC@@
represented
Dadurch
runs
Such@@
conduct
diverse
Stunde
compatible
verlieren
ard@@
übernommen
Two
breite
í
presentation
ez
Wegen
Umständen
deb@@
tain
destination
Vorbereitung
Körper
höchste
cies
significantly
dlichen
Before
Ther@@
Gesetze
Telefon
sur
fruit
approval
rechts@@
dritten
Find
06
EG
eins
Süden
GB
andererseits
Via
noise
parti@@
m-@@
Zustand
basiert
strength
quote
AT
serviert
nochmals
IP@@
ked
ehemaligen
author
Kam@@
dig@@
Kri@@
Anliegen
zustimmen
Nov@@
Diskussionen
ergeben
verstärkt
shape
recommended
Aqu@@
Strategien
Bahnhof
expertise
alter
Vit@@
Vielleicht
tigkeit
Eigenschaften
hinter@@
Teilnahme
sle@@
arbei@@
Spe@@
ül@@
z-@@
abo@@
launched
gewisse
Delegation
Roman
nötig
preise
Einklang
locations
wiederum
bericht
Anlage
PS
seien
Mul@@
improvements
ón
fr@@
charming
mechanisms
dig
Mein
Erd@@
Nutz@@
highlight
Bedenken
Studie
helping
knows
websites
39
relatively
ppe
Techn@@
bon@@
soweit
Support
fei@@
length
amongst
cing
gestern
Je@@
Tru@@
helps
derzeitigen
mental
mutual
haltung
2.
Kunde
micro@@
refugees
engineering
vielmehr
reply
zunehmend
gens
expectations
Freude
abkommen
Verbraucher@@
consultation
esti@@
Regierungs@@
zt
grün@@
Schule
sieben
Back@@
White
WC
verlangen
covers
boat
bedrooms
Kollege
UT@@
Lebensmittel@@
zieren
bung
trees
Gener@@
Poker
Spiele
Verfügbarkeit
experiences
en-
interpre@@
delegation
Reg@@
Rotary
ran
except
ile
schei@@
Hilfs@@
requests
sold
sian
keiner
Voraussetzung
umfassenden
Munich
acting
Express
sper@@
opp@@
MO@@
amerikanische
ED@@
Fern@@
X-@@
Che@@
ced
Sanktionen
unternommen
attitude
Wien
Antworten
dir
units
privacy
Book
schen@@
weltweiten
Straßen@@
western
fill
taxes
Sha@@
tritt
solve
finding
historische
genauso
Ob
anerkannt
lern
behörden
preis@@
wichtiges
werfen
lauf@@
discovered
Fas@@
dert
\
Kosten@@
Rou@@
tra
Prodi
articles
respective
Geist
trotzdem
kol@@
02
Ges@@
Formular
aging
aro@@
befassen
Plaza
furniture
qualität
Mak@@
faced
Tod
din@@
cri@@
Tit@@
stro@@
ausschusses
ghts
hilft
03
streets
tau@@
l-@@
deiner
Technology
Standard@@
ong
heraus
th-@@
ala
Allgemeinen
dishes
aktive
cheap
profit
gegen@@
Effizienz
dinner
höhere
20.
3D
fighting
Wider@@
Take
los@@
Grundrechte
drugs
Apartment
behandeln
Zugriff
trau@@
f-@@
obligation
ände
politicians
regret
Raum@@
latter
Mikro@@
Sam@@
appeal
Architektur
Untersuchung
bio@@
elled
spot
Karten
texts
kleiner
Verhalten
Sitz
rejected
ziemlich
Geh@@
hoher
Definition
Küste
temperature
tours
sorgt
ktive
ruhigen
fantastic
compensation
Berücksichtigung
appreciate
Vis@@
dans
Übereinkommen
River
700
healthy
mitten
Str@@
Power@@
dienste
Industrie@@
gespielt
kan
techn@@
walls
emphasis
Prof@@
lam@@
Schi@@
jemand
identi@@
constant
rely
Welcome
konkreten
tran@@
Schäden
enth@@
120
Kapital@@
gsten
emphasise
ativen
Tatsächlich
Kauf@@
recognise
extension
arch@@
Fil@@
centres
willkommen
Gold
tho@@
exists
Beifall
10.@@
ст@@
arrangements
betreffen
PDF
error
Wil@@
Grundsätze
niemand
producing
esses
ktion@@
sicher@@
menschlichen
reflect
1000
erhältlich
ania
ills
buchen
watch
Putin
Auftrag
cel@@
handling
Mau@@
figure
Britain
44
0.000
hum@@
User
gungen
resolve
equ@@
objects
Chamber
Sel@@
Paper
cycle
Buch@@
truth
wesen
21.
ble@@
schätzen
beg@@
suffering
not@@
xes
Video@@
Lebens
master
Verträge
helped
Use
ama
operators
beträgt
physi@@
intention
karten
duc@@
dates
audio
kal@@
kat@@
Liber@@
info
sinn@@
Pf@@
profile
ered
produkte
ligh@@
log
eiten
entdecken
substances
erscheinen
Letz@@
comply
lim@@
proof
Lord
Materialien
schau@@
tern@@
acy
Bl@@
Camp@@
Friedens@@
Bau
output
parallel
Flu@@
q@@
künftig
reich
Kategorie
Leitlinien
cent
ads
ared
ello
rup@@
whatever
Fernseh@@
OR
Maßnahme
Test
schließt
David
Norden
unge@@
affairs
Eis@@
NL
kamen
Verbrechen
mobility
omm@@
drawing
e.g.
begonnen
Pl@@
happens
eröffnet
valuable
School
sh
cross-border
Werk
disaster
reserve
kulturelle
pping
president
chter
Ambiente
gei@@
hostels
ences
comple@@
Bat@@
entlang
Sand@@
tis
Nachfrage
creative
confirmed
Anfragen
largely
formen
marks
Kind
inzwischen
AV@@
recognised
entertainment
applicable
tut
Wirtschafts-
Ohne
friend
sla@@
führende
Netz@@
Völker
naturally
Where
glichen
low-@@
Rule
ativ
manager
diseases
renewable
dungs@@
Wahrheit
Landwirte
Datenbank
Gol@@
trac@@
album
43
Sc@@
Ph@@
Old
wesentliche
ual
IC
Bil@@
ticket
Dort
Safety
assist
Fla@@
wissenschaftlichen
Mehr@@
yes
CO2
eigenes
Essen
Gedanken
zusätzlichen
opposed
Wo@@
brechen
RO
Instead
Absicht
exclusively
ł@@
dining
A3@@
italienischen
Erwartungen
kurzem
sofern
staatliche
CS@@
personally
tiv@@
institutionellen
row
chain
pose
spring
zus@@
ständige
Sach@@
Ferner
Zoll@@
näher
interessiert
automatic
fraud
outdoor
reali@@
stehende
Japanese
Schaden
millions
bus@@
inv@@
Strategy
best@@
haf@@
waters
mitteln
fähig
S.@@
rasch
couple
Rob@@
angemessen
Ministers
burden
sauna
eight
schönsten
PS@@
ernst
officials
west
USD
LO@@
audi@@
installiert
DA
separ@@
volume
whilst
leisure
fies
impressive
Hau@@
ater@@
fail
verändert
Mittelpunkt
atory
charges
zentralen
heavy
determine
arian
entwickelten
eye
Swedish
tex@@
spo@@
involving
serv@@
Rat@@
41
constructive
grundlegenden
B-@@
dige
ony
Entwicklungsländern
rt
27@@
Menschen@@
legi@@
lay
lab@@
Fischerei
offen@@
load
1991
exceptional
Weiter@@
lon@@
Stand@@
inf@@
Experten
urs
zieht
castle
lle
increases
pieces
natürlichen
tter
smus
195@@
1989
insi@@
schwierigen
Alternative
journey
tur
Dol@@
Good
neuesten
hervorragende
ani
Angriff
Schweden
criticism
stellten
Beratung
Shop
offices
radi@@
Autom@@
Schengen
Einstellung
zweifellos
freundlich
2013
gefördert
Berufs@@
Charter
BR@@
prove
equally
amounts
besitzen
post-@@
Emp@@
q
Alp@@
öffnen
lebens@@
dorf
Verbesserungen
Badezimmer
kostet
Bay
Beispiele
Tagung
ausgezeichnete
perform
fein@@
cold
sup@@
meist
niemals
Spar@@
Foto
decorated
HT@@
protecting
Blo@@
SM@@
Cli@@
Verkauf
laut
bestand
George
zuerst
command
Bru@@
kämpfen
leaving
ght
lovely
Englisch
gener
Europ@@
Normen
mandate
Special
erheblich
fassen
passengers
getragen
M-@@
Dublin
erweitert
sz@@
Klima
Los
ni
Over
eten
bedeuten
lan
On@@
westlichen
speci@@
east
offenen
residence
removed
obtained
mt
sätze
fran@@
hit
Fenster
2012
Regime
anlage
peoples
unmittelbar
aden
doors
tickets
atoren
directives
finished
ries
prec@@
schnelle
Stein@@
weather
teilnehmen
Komp@@
brief
involvement
kenn@@
organizations
Kab@@
parks
ando
ky
Wirklichkeit
medium
maschinen
lied
weshalb
blu@@
Nahen
password
treaty
Ladies
resi@@
strategies
erer
Jan@@
happening
Canada
father
bezug
täts@@
edge
höchsten
Bucht
einfachen
entstanden
mi
Lab@@
scht
Hil@@
Strukturen
Fac@@
starten
combating
Ant@@
ziele
cc@@
proved
Agrarpolitik
Their
Rechts
nahm
blue
seeing
Unterschied
ok
ausgezeichneten
allgemein
kurze
München
depends
gas@@
berechtigt
anische
sexual
parents
Park@@
Ausstattung
Kommunikations@@
trägen
maintained
fee
ú@@
ain
Boden
DS@@
blog
Websites
ktes
Van
verlangt
Kra@@
eyes
rating
Waffen
Bes@@
Sou@@
11.@@
ele
kung
contributions
remaining
teilt
Ab
räume
tenen
Sho@@
Lag@@
bemüht
grundlegende
ap
produziert
Tar@@
USB
stag@@
launch
Tourismus
creates
aufzunehmen
chinesischen
define
Ratsvorsitz
behalten
organisiert
Croatia
präsentiert
Dusche
fäl@@
colour
Sü@@
connections
ursprünglichen
issued
occup@@
Cat@@
died
occasion
renovated
ktiven
abroad
gate
Halb@@
balcony
aktivieren
AND
Empfehlung
communications
Maschinen
Dorf
musste
bli@@
Flash
hall
Action
wa
nam@@
welt@@
entscheidend
Vision
ought
discharge
precise
Kin@@
falsch
Dem
10-@@
Hostelsclub
tre
vorzu@@
meat
drink
e.@@
rein
Stellung
gewi@@
stance
preparation
R-@@
Hy@@
ett
Anbieter
weisung
King
spanischen
Bestellung
Führungs@@
spec@@
organized
Basi@@
rapporteurs
zugänglich
GNU
two-@@
Ausgangspunkt
bedeut@@
jahr
cru@@
divided
wünsche
Robert
Ware
Jedes
Kredit@@
restrictions
riesigen
Revolution
reserves
kla@@
Pla@@
assure
surroundings
requirement
vast
uss
resolved
pack@@
behörde
markt@@
Hafen
Pflicht
zig
Kamera
stream
lus@@
dritte
tter@@
soci@@
für@@
repeat
Überzeugung
doesn
umzusetzen
Problems
Jahres@@
iler
weist
sm
Sat@@
classic
Zentral@@
Get
collective
frie@@
messages
abgelehnt
roads
Kann
Kooperation
ix
Künstler
Airbus
debates
atischen
cable
elling
definitely
46
mus
gratulieren
Fort@@
Oper@@
owners
Massen@@
47
derartige
ó
Krankheiten
Immobilien@@
let@@
Projekten
Punkten
hren
identify
Trau@@
lautet
USS
04
verursacht
contracts
regulatory
übernimmt
Des
Lauf@@
returned
п@@
höher
dd@@
system@@
regularly
migration
owner
Bulgaria
Luxembourg
Angst
fehlt
är
betreffenden
Verbindungen
bike
schicken
opinions
UN-@@
Steuern
get@@
pers
focused
wirtschaftlicher
Mitgliedschaft
investors
signs
chn@@
extrem
ela
vorgenommen
tierten
characteristics
bild
dur@@
Abschnitt
wirksam
Music
chtung
erlauben
ham@@
atten@@
hardware
PRO@@
will@@
termin@@
maschine
resolutions
funktionieren
systemen
defend
Geräte
ome
Abkommens
anstatt
etzen
pfen
worse
Lim@@
zogen
Front
i.e.
schafft
liberalisation
Boo@@
extra@@
Harmonisierung
Gleich@@
driver
vieler
Under
freundliche
Post
verschiedener
ended
Erholung
tag@@
facts
Mac
Alter
Log@@
tene
intend
derung
faster
Hinter@@
erei
bekämpfen
durchzuführen
Sy@@
Mach@@
EF@@
künftigen
Executive
MEPs
vollständige
continent
komme
stände
properties
transportation
Java
verstanden
sische
Veranstaltung
glad
Gebrauch
hundreds
Farbe
sehe
recht@@
realistic
conflicts
Black
involve
AP@@
ques
fordere
carbon
Beweis
proud
Klasse
Ele@@
zuge@@
Eltern
prakti@@
sichere
mo
Marina
main@@
11.
isation
3.
ening
Sit@@
Will
awareness
OM@@
Mich@@
topic
ethnic
ecken
plätze
mul@@
Rumänien
impression
Life
echten
Fähigkeiten
Netz
Ausführungen
conducted
leben@@
Polish
umgeben
Film@@
ergriffen
52
weiten
V-@@
facilitate
Gestaltung
mod@@
joined
Ci@@
heating
plays
Sauna
Entwicklungsländer
wachsen
Partnern
suites
operational
starts
Tisch
isi@@
deli@@
jährigen
Wird
gliche
Verhandlungs@@
deals
Ag@@
seat
sinnvoll
aufgefordert
understood
grow
dynam@@
Procedure
¤
lift
frequently
updated
tende
displayed
Organ@@
Reform@@
ino@@
Ausnahme
ima@@
Box
confirm
settings
Assi@@
dam@@
Gegend
teren
bezahlen
license
depending
fizierung
Strukturfonds
wers
kurzen
Buchung
sole
familiar
Ratspräsidentschaft
nachhaltigen
Ara@@
performed
tigung
iten
wär@@
Konflikt
printing
mus@@
nights
enzen
wie@@
effectiveness
ê@@
Änderungsanträgen
Ausstellung
.000
zahl@@
firstly
schlägt
sern
Element
appointed
conc@@
Sommer@@
Mari@@
mostly
Staat@@
Las
Übereinstimmung
klaren
bre
int
9-@@
gespeichert
Wohl@@
Austausch
annehmen
Programmen
festival
Institution
Award
komp@@
Hü@@
customs
machte
eth@@
Nein
Vorschlägen
avec
satz@@
submit
Thomas
beschränkt
frag@@
ac
irs
aktiven
Pass@@
Tom@@
ausgeschlossen
formed
demanding
Nachrichten
somewhat
iso@@
clubs
bridge
schem
Second
Schwerpunkt
Den@@
wasser
electricity
ises
View
Messe
Analy@@
Stre@@
.org
Hostels
eignet
Monetary
ron
ession
uting
ong@@
answers
verbringen
ader
lec@@
kop@@
gestellten
Umgang
reiche
minority
Washington
kno@@
interior
buch@@
Geschäfte
ultimately
früheren
decision-making
aller@@
sicht@@
notwendige
universal
Beitritts@@
ce-@@
Fü@@
interessante
noted
pass@@
beglückwünschen
Straßen
Dat@@
sight
durchführen
messen
Real
module
Ausführung
library
blood
51
wan@@
ED
Gentoo
emergency
cr@@
Kilometer
grant
U.S.
Drittens
teams
gän@@
Sun@@
avi@@
ließ
Wissenschaft
Wind@@
jahr@@
Führ@@
wen@@
Fri@@
ros
techniques
Schlafzimmer
Hall
pm
ny
gold
inflation
tes@@
meant
Brazil
mä@@
tierte
ish@@
personnel
Mensch
verabschiedet
Whether
ministers
träge
SMEs
sodass
een
geo@@
sk
zulassen
dru@@
drivers
Maß
Framework
visited
ton@@
Arbeitsplätzen
provider
aria
leiten
sn@@
bern
massage
parliaments
ash
zugunsten
Übersetzung
hervorheben
Drittländern
stars
Deutschen
füllen
а
Identi@@
lounge
iting
welfare
sch-@@
cross
Förder@@
ize
einzigartige
bestätigen
islands
hostel
igkeit
zuständigen
hö@@
Mexico
li
kanischen
angemessene
tically
mar
accompanied
reported
gehende
verhindert
custom@@
ausgesprochen
Kontakt@@
fru@@
ausgesetzt
statistics
studio
prefer
chemical
career
northern
Luft
mol@@
breiten
grateful
ail@@
lists
metal
bound
russischen
Gleichgewicht
ado@@
theit
Prinzipien
well@@
Komponenten
follows
looked
Cyprus
Planung
modern@@
or-@@
Ide@@
contrast
vorher
zunehmen
farm
Radio
Besonders
viel@@
Faktoren
Tim@@
geprüft
subsidies
ased
valley
liefert
ont
windows
Verringerung
Yes
Werbung
Rund@@
gearbeitet
wann
relaxation
Alles
delighted
Firmen@@
passiert
rie@@
satisfied
Beziehung
Miss@@
Euro-@@
invite
wines
famili@@
druck
bom@@
nungs@@
Vereinbarungen
aufnehmen
indicated
deckt
contacts
woman
Beiträge
72
corner
presents
Aut@@
stored
orial
eastern
Gerichte
Saint
Kas@@
rou@@
Church
erst@@
Außenpolitik
BIP
unmöglich
ordin@@
percent
AU@@
sor
Optionen
cked
Mur@@
Wein
channels
terrorist
Sonne
Gesellschaften
kli@@
definiert
Plenum
Schluss
Fun@@
arrive
flights
MySQL
Wol@@
verringern
aw@@
ita
sucht
Gemein@@
newly
visiting
Handeln
functioning
corruption
î@@
Copenhagen
recommendation
feed
tourists
höheren
Einstellungen
entsteht
Chinas
pped
Les@@
dence
exciting
Lö@@
Jede
Festlegung
judicial
actively
kn@@
hot@@
widely
vacation
scheinen
belie@@
Plattform
TO@@
Budapest
visa
&apos;ve
match
desk
Drogen@@
Transport@@
Congress
entwurf
welchem
Verb@@
tea
elten
entrance
Gespräche
Zimmer@@
cosy
declared
imposed
Report
pollution
firms
Band
bert
direkten
verleihen
careful
bilateral
Wünsche
eckt
86
Morgen
dan
AK@@
dal
Mün@@
showing
IV
Edition
einhei@@
Währungs@@
burger
rock
Individu@@
schlecht
serving
Zusatz@@
explore
nahmen
decken
2.0
Friday
fläche
aged
inhabitants
gert
afternoon
Bemerkungen
soli@@
gardens
Prop@@
ungefähr
LE
involves
SS@@
Brand@@
cket
Straf@@
Prague
Garantie
verändern
Neue
cont@@
tlicher
rechtliche
Act
priv@@
sierte
Ausgabe
ska
Pet@@
gebiete
configuration
eres
erreichbar
demonstrated
gestaltet
expert
speaker
vertre@@
turen
psych@@
gran@@
winning
Trek
geboren
Noch
deck@@
nieder@@
ación
Adobe
dich
Earth
formal
d.h.
Regierungskonferenz
Frei@@
wollten
pris@@
Aktion
reifen
News
linien
gerichtet
1st
occur
ils
erleichtern
PO@@
Perhaps
heritage
ausgeführt
Sony
cast
declaration
maintaining
eff@@
nahezu
Protection
werten
licht
assets
sorgfältig
Minderheiten
intellectual
competent
ero
fashion
fördert
EG@@
Zentralbank
Design@@
Verteidigung
aj@@
Funds
Deswegen
va@@
Haftung
motor
kürz@@
Ed@@
Zwischen@@
spoken
Ziffer
Fru@@
collaboration
transition
reject
begrüßt
boot
erneu@@
Zer@@
ck-@@
Given
Stück
betra@@
ongoing
gio
lebt
Justiz
strict
Soviet
earth
oriented
Ster@@
conditioning
stellungs@@
remote
Baltic
functional
hinzufügen
quarter
u.a.
heits@@
tennis
resistance
demonstrate
Kurz@@
Je
desired
expansion
settlement
Sicher@@
brau@@
plenty
top@@
Verbot
schauen
high-quality
Veröffentlichung
Gründung
Poly@@
Sorgen
nat@@
präsentieren
kin@@
3,@@
12.@@
theme
Arab
solange
gungs@@
überzeugen
esch@@
ère
Port
channel
fitness
films
bemühen
ч@@
letztlich
bestimmen
EM
ade@@
illi@@
Golf@@
categories
rapidly
holen
tos
trafficking
bestehende
oc@@
facility
staat
Datenschutz@@
iner
documentation
hän@@
appearance
aly@@
usual
Sollten
perfekt
Rom
18.
heutige
Marktes
stylish
è
я
Einbeziehung
committees
Studenten
Kir@@
department
Or
Question
Chancen
generated
Rest
spra@@
passenger
gezwungen
ausschuß
organisationen
frame
ambi@@
recorded
Sei@@
regarded
Sozi@@
Portuguese
Werbe@@
Charta
Mobile
gallery
educational
PP@@
Cri@@
billi@@
artist
concluded
basi@@
verehrte
gewal@@
possibly
klar@@
raw
eing
Umfeld
Skype
früh@@
ending
geltenden
Ferien@@
Insbesondere
phrase
vil@@
justified
KMU
Jun@@
betrieben
sharing
essen@@
Sollte
Bewer@@
54
Description
swe@@
Hostel
dokum@@
glob@@
Marketing
owned
with@@
awarded
glaub@@
Applause
exit
containing
cutting
zeichn@@
Sim@@
einrichtungen
mas
bottom
Flo@@
Dru@@
Mobilität
lösung
standen
aches
foundation
moral
auer
ž@@
James
argument
bet
long-@@
replaced
erinnert
apart
G-@@
schlag
hair
vorlegen
Software@@
Balkon
Preisen
dependent
britische
mix
Obje@@
sil@@
J
lasting
sierten
and-@@
ös@@
beraten
Webseiten
dürfte
St
emerging
Tou@@
Zielen
Mö@@
individuelle
ond
ferner
lokale
selbst@@
planet
Struktur@@
bereitet
towns
mother
Tab@@
Fein@@
Eurozone
Identität
Plus
lauf
liegenden
treiben
isen
flows
Town
zun@@
Untersuchungen
å@@
zieh@@
wed
Nah@@
tierung
installieren
handel
Vorgehen
jegliche
respected
saving
copyright
з@@
count
MB
assume
overcome
Computer@@
Versionen
Hungary
CE@@
tested
Kurs
Quar@@
het
cian
Waren@@
Freiheiten
abgestimmt
routes
minorities
igung
def@@
credibility
TO
nit@@
Acc@@
tackle
este
tischer
verkaufen
spectacular
eds
König@@
App@@
IT-@@
spann@@
verdient
Mol@@
Selbstverständlich
Northern
Power
Vorschlags
Puerto
benen
hen@@
entes
crimes
sich@@
wohnen
partly
erfolgreiche
heat
Training
determination
professionals
verhalten
Update
Wachstums@@
ham
satisfaction
organisieren
flat
prozesses
Glas@@
Fle@@
einig
stronger
übrigens
respon@@
Belgium
Cha@@
acted
vorschriften
Newsletter
ersetzt
Fischer
Women
dance
entscheidende
tigt
puts
Kräfte
nissen
absch@@
Werke
Gest@@
sie@@
ups
Bars
programms
größer
direkte
Wir@@
jün@@
individuellen
Signal
Konsens
Ram@@
Gerichtshof
weite
ds@@
transactions
occasions
verurteilt
su
Arbeitsmarkt
verkauft
oni
vorhandenen
Politiken
scheme
entwickelte
wat@@
marquis
yed
beziehungen
ney
Mitarbeitern
stischen
kri@@
isch-@@
zentral
Asien
dens
wand@@
Verbreitung
sprachen
lik@@
immigrants
Studien
ency
einheitlichen
manufacturer
fon@@
alization
Network
beruht
Oder
Internet-@@
correctly
reduzieren
geräte
fans
els@@
ora
replace
reform@@
rali@@
Parlament@@
gewährt
Pact
Fel@@
din
Within
conf@@
Tour@@
Amendments
ards
inst@@
enjoyed
äußern
erhebliche
tables
vorstellen
Zwecke
Kli@@
weekend
begrenzt
cash
Anschluss
bekannte
non
Well
arrived
Show
leb@@
strategischen
Besorgnis
Eu@@
bekämpfung
Desk
sicheren
gerät
Krankheit
grundsätzlich
aussch@@
EX@@
CE
Nachricht
gehenden
kg
derer
genannte
housing
still@@
Wi-Fi
inklusive
lob@@
Space
moti@@
liberal
slightly
Israeli
Food
miles
Canon
ico
sending
corresponding
rental
adults
quali@@
Städten
ental
Vorstellung
Following
digt
drinks
Don
legitimate
Champ@@
mach@@
Einwanderung
Rezeption
tives
Wirk@@
peti@@
constitutional
Page
tan
Cu@@
EP@@
Gewicht
räger
Sein
mö@@
rap@@
Kapitel
industri@@
â@@
solid
herr@@
direc@@
Freunden
component
kam@@
beschäftigen
angebot
Flü@@
einfacher
Hohen
ruhig
genügend
Tan@@
losses
p-@@
youth
ées
ski@@
informationen
Bedrohung
·
shares
distributed
kungen
Extre@@
nunmehr
index
raten
ace
drücken
Taiwan
Medien@@
a.
suppliers
buch
funktion@@
aum
banking
inde@@
5.
providers
sensible
cuts
subsidiarity
updates
Schulen
angegebenen
kel@@
versorgung
Videos
S.
steuer@@
tun@@
offiziellen
division
vin@@
destruction
OF
mächti@@
orts
Dach@@
magnificent
Zone
Bemerkung
cial
cab@@
constitution
rising
jenen
sprach@@
Hier@@
wrote
identified
läßt
194@@
EB@@
Kap@@
Asyl@@
aner
effektiv
denden
Malta
egal
taxation
ais
Erzeugnisse
hängen
Fal@@
Benutzer@@
Denk@@
Systemen
Pack@@
Without
üb@@
Atlantic
zusammenarbeiten
addresses
maritime
ishing
dul@@
aussprechen
elsewhere
Selbst
globalisation
sprach
führten
interpretation
behaviour
Son@@
considering
ci
jo
gebieten
werken
kompet@@
fas@@
eventually
gesellschaften
Auge
vorbereitet
Wohnung
außerordentlich
NI
disp@@
Europol
wege
gangs
AN
fantas@@
71
französische
exception
Marke
Ton@@
wear
leistung
68
tered
kel
verstärken
sü@@
sin@@
53
VAT
filter
Py@@
gere
poly@@
secret
Ah@@
ensures
Zusätzlich
herrscht
milk
erfolgreichen
gewonnen
Termin@@
AD
electric
verbinden
Kauf
exports
Fon@@
thy
par
Schwei@@
aufs
ump@@
etes
vic@@
domain
battle
uss@@
lers
Sektoren
56
ented
modell
Gran
sit
straight
Kyoto
a.@@
Kontrollen
traditionelle
oning
Structural
Hungarian
Tau@@
tively
preparing
SV
but@@
Neben@@
encouraging
virus
Sunday
extraordinary
pot
Gesam@@
jener
Viertel
erhielt
Herz@@
fs@@
unverzüglich
sprech@@
Valley
schrift
Mission
p.m.
erlebt
generate
wissenschaftliche
decisive
arti@@
Blog
proposes
Thirdly
se-@@
courts
slow
irgend@@
eingereicht
Eisenbahn@@
Vel@@
wiederholen
verantwortungs@@
politi@@
Wohlstand
aux
drei@@
hear@@
liked
gste
66
motor@@
Balkans
ologi@@
Islam
roman@@
Kop@@
scene
Zy@@
deficit
Charles
vulnerable
Salzburg
disk
mali@@
label
dischen
filled
asser@@
Bereitstellung
army
citizen
Year
ständen
15.
prü@@
Einkommen
schm@@
didn
por
everyday
4.
Vorsitz
Erstellung
Like
op
enhance
Stimm@@
vieles
topics
entscheidender
lock
vely
schu@@
beigetragen
fügt
succ@@
beschrieben
Beschluss
Lieferung
surely
Dre@@
Schwar@@
bonus
transpor@@
packaging
rum
plenary
Cer@@
tief@@
complicated
substance
großem
portal
luxurious
sugar
UC@@
university
Touristen
Pakete
supplies
Verk@@
selling
Roh@@
spoke
et-@@
finanziert
anz
Einheit
Spaß
Nos
accurate
lessons
WLAN
Fuß@@
Lok@@
invest
ulate
virtual
Client
organ@@
ähnlich
kleines
ites
inclusion
Schw@@
sitz
kts
essi@@
gefallen
§
Ungarn
examine
directed
Exchange
20-@@
Theater
Männern
connect
patent
bislang
Assembly
fahrer
verst@@
wunderschönen
proven
Katastrophe
kräfte
Schlussfolgerungen
Blan@@
revi@@
zustellen
selben
zeichnen
Main
specified
elektronischen
jährige
bestimmter
excessive
Garden
CON@@
therapy
inger
dende
Thursday
Mangel
Gran@@
Cra@@
ride
beteiligen
videos
theory
derte
enabled
intern@@
COM
Person@@
break@@
Staates
gestattet
Ansichten
Dienstleistungs@@
conver@@
impose
suffer
vermitteln
verkehrs@@
integriert
Rap@@
concepts
ENT@@
mes@@
Live
heben
Pul@@
mot@@
itäts@@
stolz
wohl@@
renowned
leistungen
dt
erzeugt
ungser@@
absence
fly
deposit
zahl
einzigartigen
alized
teilung
kraft@@
forests
Genehmigung
Brasilien
ping
adopting
shipping
description
wechsel
asses
voraus@@
Sicherung
diplom@@
ahn@@
hundred
viol@@
Einwohner
gut@@
Kontext
greatly
Digital
Ep@@
ag
Mail@@
savings
Polizei
Vater
menschliche
directory
Zwei
IV@@
proceed
unden
schwer@@
BMW
Konto
arm@@
ere@@
verbindet
abuse
drug
tei@@
ville
tin@@
solches
Rechtsgrundlage
ums@@
Alt@@
traditions
centuries
hervor
anwesend
investieren
foot@@
handle
carrying
finish
59
angegeben
geschichte
Besides
lad@@
applying
departure
heim@@
layer
wonder
arischen
suggestions
gli@@
gained
Bou@@
Law
voluntary
Rein@@
akt
Modelle
Grad
proposing
häuser
alities
solely
Rus@@
eit
schla@@
raising
druck@@
mischen
villages
countryside
equi@@
subjects
Konsequenzen
aqu@@
kette
Guests
Games
ordinary
absor@@
Rahmen@@
Gold@@
Image
Lounge
heim
BO@@
Bern@@
Mail
lined
Publi@@
vent@@
formation
Rich@@
chem@@
Schiff@@
Provinz
fern@@
duties
trial
paying
Pin@@
Eli@@
supplier
AC
Cup
Darum
Datei@@
colours
Gam@@
Vier@@
eingehalten
Boden@@
hör@@
Gerät
klu@@
artistic
wave
Entscheidungs@@
Dauer
asing
wirk@@
Nummer
Fax
representation
bereichen
Hamas
trend
gh
philosophy
UM@@
freut
gewissen
Wo
Landes@@
skiing
CS
museums
resul@@
ami
geboten
lieb@@
trips
Len@@
Budget
Sig@@
fuer
beantworten
thousand
appeared
treat
Positionen
fli@@
individuell
Boot@@
impor@@
Tools
Prozesse
pursue
grös@@
Beschlüsse
consent
Holiday
nevertheless
ologischen
Trop@@
aut@@
förder@@
Betrag
weitgehend
aut
della
manche
toler@@
bereitgestellt
comparison
Kroatien
trag
Arbeit@@
promised
58
Maastricht
mati@@
ator@@
internen
Interessen@@
reservations
receiving
Wählen
liefer@@
beobachten
auto@@
Hot@@
100@@
bedeutende
Elektro@@
Glaubwürdigkeit
Set
wert@@
inmitten
input
Egypt
invited
sheet
ähnliche
pression
Tel@@
Having
mussten
wiederholt
SA
unity
Rö@@
obje@@
mechan@@
difficulty
enswert
ativ@@
sers
Schwer@@
tobacco
zuständig
yo@@
schie@@
Tool
punkte
ziel@@
root
Überlegungen
vorge@@
wechsel@@
effizient
92
bekommt
vorher@@
portfolio
award
dienst@@
-based
lte
reli@@
bergen
Ol@@
non@@
nde
hr
New@@
ests
Parkplatz
Kopf
Völker@@
Kulturen
Strom@@
ausgezeichnet
mittleren
sozialer
gebildet
uted
entspannen
Trotzdem
Ganz
Islamic
sichts@@
anbelangt
Kontakte
sus
pools
Wur@@
erstmals
smo@@
Legal
б@@
überprüft
Quality
Zivilgesellschaft
Gegenstand
Reduzierung
Num@@
suggested
Bulgarien
wirtschafts@@
pes
Suiten
mid-@@
Hom@@
Gast
ring@@
langfristige
Situated
cle
laufenden
prosperity
probleme
Castle
zäh@@
pure
einbezogen
ema
Korruption
elec@@
Sum@@
sicherung
niveau
stages
ursprünglich
Cur@@
Agriculture
dene
langsam
disabled
steh@@
Playa
Menü
Monday
ame@@
relative
wach@@
productivity
Gehminuten
pel@@
arguments
fertig
periods
eat
Glück
Schlüssel
optimale
Anlass
quar@@
Browser
17.
Professor
welcoming
Geschmack
oper@@
well-known
delicious
Blu@@
Mont@@
Körper@@
depend
ization
attempts
necessarily
reduziert
steuern
schwei@@
GN@@
moder@@
Gefahren
CF@@
ading
patient
confirmation
Budgets
Based
ols
spartner
akti@@
arbeits@@
Americans
them@@
wirtschaftlich
weak
Energien
Vorhaben
ov
angesehen
symbol
sounds
cleaning
gerufen
AM
referendum
anc@@
kes@@
Christ@@
wis@@
richtet
Kollegin
fang
import
Stoffe
chtet
hill
leaves
pä@@
religion
Politik@@
dauert
Dafür
ET
ail
Gewährleistung
Konzer@@
tier@@
kunden
Strasbourg
passen
addi@@
verteilt
Eigentum
utz@@
Akti@@
Offen@@
setz@@
shot
pt
esse
ausgerichtet
Lebensmittel
Sec@@
AR
verein@@
Finanzierungs@@
united
Gut@@
auftreten
steigt
politically
DO@@
stil@@
homes
stern
farming
Mrd.
enabling
villa
ano@@
overview
Mes@@
letztendlich
EA
Tip
dream
betreiben
Aufsichts@@
imports
bank@@
Apple
Key@@
projekte
täglichen
reit@@
permitted
Pil@@
lev@@
unds
oria
eil
effe@@
istic
©
Tem@@
lobby
ura
Tele@@
satisfactory
änden
Wes@@
40@@
behaupten
schnell@@
sau@@
Place
ausgegeben
entschlossen
inos
gründen
allocated
Schiffe
estimated
regul@@
Bahn@@
88
Verlust
constitute
Gerade
bach
verkehrs
stä@@
zukünftigen
Tat@@
societies
verfügbaren
ersetzen
Wirtschaftswachstum
4,@@
unforgettable
dict@@
rare
succeed
stab@@
Master
Federation
Kriegs@@
supposed
killed
Bul@@
ration@@
ori
significance
ling@@
Bade@@
fü@@
Programm@@
publication
Facilities
ign@@
Pau@@
cooperate
hierbei
welcomed
Through
vierung
Pon@@
camp@@
kontaktieren
instructions
künftige
XP
continuous
Gaza
gedacht
Fahrzeuge
gnis
upper
sah
Erfüllung
recognized
inten@@
wireless
Entlastung
üt@@
gelingt
zentren
kontrolle
Praktiken
einzusetzen
Telefon@@
refer@@
Personal@@
Sterne
beendet
versichern
obliged
Wald@@
visu@@
militärischen
alt@@
Belgien
stimm@@
unterscheiden
speichern
Gericht
functionality
größeres
clean@@
Asian
fourth
Genießen
entspann@@
Thailand
Les
Übergangs@@
mangel@@
ECB
verteidigen
ital
iPhone
individu@@
angepasst
fir@@
sparen
Cent@@
cell@@
konfrontiert
altern@@
specialist
Kommissions@@
trieben
tree
Who
toward
militärische
programming
klein@@
ès
cos
Schiff
breit@@
destroyed
h-@@
Prozesses
57
konzentriert
й
spiele
ute
initi@@
struktur
ter-@@
gendes
allzu
bis@@
tionally
missing
Pun@@
geschäf@@
Rol@@
Freitag
offene
legte
Verfassungs@@
refers
hardly
cells
contributed
ario
illu@@
Anstieg
Ausflüge
klein
Berliner
actors
Point
leu@@
Islands
stör@@
Gerechtigkeit
remained
gue
Finland
aktiviert
richtung
cot@@
Posi@@
67
Verletzung
Prüf@@
ра@@
Gemeinde
fundament@@
prime
bares
16.
Refer@@
interessant
lived
covering
sections
organic
welcomes
song
griffen
fähigen
grenzen
Mei@@
leh@@
inner
pen
Frühstücksbuffet
unabhängigen
ee@@
Guide
hier@@
Perspektive
characters
modules
Rem@@
negotiating
Play@@
Vene@@
Mut
armed
Nachbar@@
dau@@
designs
bestellen
Australia
füll@@
Drei@@
gelegenen
HO@@
Feld
Sachen
harmonisation
Amt
ose
Übernachtung
Kla@@
fulfil
lunch
dere
rieren
hospitality
Verarbeitung
Runde
brachte
gelassen
Standort
waffen
prev@@
supervision
trends
suffered
Situationen
Family
preventing
luss
ald
hung
Nachbarn
hi
Betten
Next
revision
Stad@@
ssen@@
Inform@@
Schweizer
Flüchtlinge
wettbewerbs@@
notes
Terror@@
viertel
premi@@
euros
Zeitung
Institu@@
amenities
thin
unterzeichnet
institutionelle
Krisen@@
herunterladen
Gir@@
classes
fees
Wirtschaf@@
explained
voc@@
Organe
FT@@
Wechsel@@
mitteilen
unterstreichen
anim@@
gemeinschaftlichen
aming
deswegen
Weiteren
songs
bisherigen
adap@@
ehen
ford
illegalen
spa@@
ans@@
Anti-@@
pp
sichtbar
strategische
fanden
productive
adverti@@
Pläne
forthcoming
äh@@
lieren
Märkten
Education
komple@@
none
reaching
kern
6.
uter
indicate
NGOs
blocks
könnt
musical
legally
thermal
mitglieder
vorzulegen
Tätigkeiten
Willkommen
barriers
Eink@@
betreffend
fax
vollständigen
kund@@
freedoms
ô@@
lieber
ey@@
wirksame
spreche
arise
Sind
sphere
Tei@@
abstimmen
gram@@
typ@@
Bis@@
anschließend
Should
turning
Finanzkrise
belief
empfangen
everybody
introducing
parameters
zukünftige
Director
restricted
Schon
cour@@
hochwertige
saved
doub@@
Grünen
computers
Rent@@
Fehler@@
angebracht
conventional
ologische
Donnerstag
gap
Transpor@@
Widerspruch
Grün@@
unterliegen
originally
HTML
natürliche
grosse
sustainability
Wür@@
itali@@
tari@@
stocks
aire
gewis@@
verdienen
verwaltung
ergibt
archi@@
tory
labelling
driven
Project
vorgeschlagene
wellness
movie
Regierungschefs
günsti@@
L-@@
roll@@
umfangreiche
erzeu@@
Abendessen
Veränderung
Auditors
football
geprägt
Vorsch@@
hart
Don@@
male
coun@@
Est@@
sses
Hab@@
movements
Redner
Venice
enhanced
AF@@
enterprise
wild
Ankunft
resource
Schloss
firmly
severe
elte
vorgesehenen
combine
stück
Andere
Saturday
PD@@
hydro@@
reflected
praktische
langfristig
fassung
transmission
Schwe@@
showed
realise
Geschäft
fairly
sauber
Institut
dio@@
Sau@@
alisierten
Zuständigkeit
unabhängige
halb
Zug
Ausmaß
fährt
modi@@
effiziente
drop
materi@@
anzuzeigen
VER@@
errors
Single
Hö@@
Stimmen
ffe
Internationale
Stability
hingegen
vertrag
Mallorca
remarks
behoben
itä@@
fuhr
beings
anhand
pit@@
küh@@
Top@@
Ker@@
selten
Ablehnung
bed@@
Mah@@
enge
Kanada
anschließen
proceedings
Leg@@
dering
suit
Weg@@
ras
Cookies
nutz@@
gemeinschaft
Komm@@
Vietnam
reflects
gor@@
tot@@
gal@@
sing@@
ungs
Does
Piazza
AIDS
imagine
wachsenden
Fir@@
Gor@@
considerably
strukturi@@
geraten
vorbei
Serbia
gesp@@
adapted
schule
kro@@
Socialist
budgets
gebeten
zeug
boards
lischen
ließen
vorschlag
SL@@
director
Partner@@
Rio
Bot@@
holds
gesetz@@
hearing
amazing
Corporate
Quellen
Armee
amt
ed-@@
Vista
lösungen
cancer
Mr.
ells
collected
obstacles
grade
Vorlage
tent@@
gene@@
stieg
whereas
Regional
thi@@
safeguard
Ga@@
sin
edition
Büro
normalerweise
nd
universities
Konferenz@@
Last@@
verti@@
olog@@
bat@@
án
parliament
Plas@@
passt
ume
sab@@
täten
CHF
um-@@
Leitung
gewähren
Zivil@@
Respekt
endorse
wahren
Anwendungs@@
sogenannten
Roll@@
Reisen
tracks
BI@@
ete
elli@@
coordinated
sammeln
Stockholm
adapt
Captain
Album
körper@@
tol@@
fikation
Ari@@
Berg
design@@
pressed
ih@@
märkte
faith
freundlichen
hervorragenden
female
mente
63
super
fügen
Kranken@@
regardless
acceptance
Christmas
züge
romantic
ato@@
Sul@@
tert
82
auff@@
sach@@
dargestellt
Ebenen
dankbar
Cho@@
secre@@
gemä@@
Get@@
Geneva
Freizügigkeit
Form@@
s.
Gerichts@@
schnellen
grad
viert
tail@@
investigation
generations
fast@@
Börse
greift
any@@
normalen
Mutter@@
chair
ull
sights
fähi@@
0s
dry
consulting
decade
Staatsan@@
Prote@@
Sohn
sw@@
sischer
worthy
Road
anner
Führer
gewünschten
enthaltenen
Heizung
servers
hohem
König
birth
letters
Abhängigkeit
dark
wür@@
ION
ux
Meines
arbeitete
Rückkehr
vereinbart
vessels
sierungs@@
konferenz
vorliegende
federal
GT@@
besonderer
Indian
öffentlich
exploitation
ange
tual
sty@@
Deutsch
undoubtedly
verboten
Aktionsplan
7.
Abschaffung
Г
nec@@
alem
shed
till
refle@@
managing
Urheber@@
zahlung
Jugend@@
reaction
Forsch@@
Wochenende
methoden
amed
flächen
eta
Fan@@
equivalent
SW@@
altet
ollen
pretty
heißen
Erinnerung
sought
disasters
kontrollieren
Mini@@
Volkes
politisches
produzieren
tief
ichte
oned
Reservierung
ished
compact
ease
Pr@@
feu@@
dev@@
forschung
Entspannung
bereiten
dialog
Lizenz
travelling
ernsthaft
Haushaltsplan
Ale@@
Regel@@
gere@@
xen
erkannt
Kong
iniert
erfreut
Hong
Teams
fleet
griechischen
Gang
chti@@
ordered
ktoren
sees
iled
geplant
lic
internationally
bende
Erst
guided
Stuttgart
checks
printed
Typ@@
Maschine
ill
zuzu@@
nütz@@
Culture
Geschwindigkeit
Sin@@
Befugnisse
jetzigen
isti@@
krise
Konflikte
Beteiligten
automati@@
step@@
Lang@@
beru@@
Customer
metro
dings
Sammlung
joining
Dritten
fix
Equ@@
Zahlungen
atz
Orte
Jahrzehnten
ind
EP
62
decline
io
supplied
restored
U-@@
Marken
rechnen
grenz@@
ji
Kirk
underground
nungen
zog
Fahrt
externen
Georgia
Got@@
gefragt
cen@@
bestimmungen
courage
inner@@
bemerk@@
hervorgehoben
bol@@
roots
sex
neg@@
antworten
ätze
Beide
Quelle
protocol
komplette
script
dent
Check
Dam@@
umzu@@
absol@@
brow@@
Binnenmarktes
MA
Planeten
Symp@@
überaus
mouth
Tibet
Tür@@
Gleichstellung
vierten
seri@@
Top
einheitliche
Ali@@
Berichten
Seri@@
Blut@@
Administration
ungsverfahren
exclusion
Mem@@
vieren
cement
us-@@
Investitions@@
sound@@
aufgebaut
nummer
80@@
NO@@
vali@@
Cy@@
abilities
anywhere
believes
reliability
pet@@
nbsp
mess@@
excluded
mittlerweile
erfordern
cultures
learned
Tourism
echn@@
i-@@
mere
schweren
Up
bezahlt
Exper@@
profession@@
trav@@
dische
Euch
satisfy
Debian-@@
tier
Prozess@@
Geheim@@
wald
13.
Tor
Handels
graphic
entgegen
nicht@@
letz@@
penalty
Kreditkarte
leichter
Friendly
steten
slo@@
play@@
Blue
Sitz@@
commun@@
Kü@@
deep@@
unterschiedlich
erwähnen
Großteil
Meeting
tiz@@
concentrate
Dreh@@
Schönheit
beschränken
regel@@
12.
shift
proc@@
klassischen
besu@@
Foto@@
hil@@
spi@@
CD@@
mini@@
restructuring
8.
ökonomischen
Vorausschau
zugrunde
Mutter
sit@@
Bin@@
subsequent
diversi@@
entdeckt
sse@@
oms
Darstellung
floors
überein
of-@@
garten
77
violations
transferred
niedri@@
10.
Allianz
bedanken
missions
korrekt
Opposition
emplo@@
processed
komfortable
untersucht
analyse
gehei@@
letzter
clause
Ursachen
humanitäre
existiert
69
justi@@
reck@@
но@@
mine
ACP
nachdrücklich
Tal
steam
zurückzuführen
perfekte
bo
Location
leitung
umsetzen
ouse
Alexander
gestaltung
sovereignty
remin@@
hierfür
Schlaf@@
dignity
formats
Diam@@
Hauptbahnhof
Tausende
89
Information@@
non-smoking
stammt
anz@@
Produ@@
Notes
Tages
Verteilung
73
29@@
everywhere
dating
aside
GU@@
factory
groß@@
assembly
ae@@
LA
heit@@
eingegangen
ories
counter
irre@@
senken
Ret@@
Mir
ure@@
restore
hast
Optim@@
gestal@@
Casa
Waffen@@
berichten
Der@@
Faktor
ко@@
vice
900
umfassend
kir@@
festzulegen
Schla@@
magazine
Kriminalität
Küsten@@
Investoren
Red@@
Agenturen
disc@@
Gemeinsame
kurs
Pati@@
Branche
Eingang
rol
Commissioners
melden
reserved
geleitet
Ori@@
Lizenz@@
Spielen
overlooking
zeugen
einzuführen
faces
Il
grossen
prof@@
SD@@
Academy
produces
deut@@
plastic
Balkan
meal
targeted
greif@@
enorme
Rechten
Emissionen
assess
sichti@@
cell
Museen
approve
dead
Passwort
Nahrungsmittel@@
alisieren
Generationen
Vertrages
Sol
Nero
gehör@@
hoffentlich
panel
Hat
agi@@
pon@@
Lat@@
listings
Stock
kamp@@
Sudan
Arbeitsplatz
shadow
picturesque
accident
nine
lädt
student
stan
musi@@
tum
deeply
strengthened
gering
miss
Will@@
undertaken
ager
Früh@@
selb@@
treatments
ten-@@
Port@@
nes
kernel
alisiert
Bag@@
Würde
EZB
wonach
Staff
sand
strasse
Bereitschaft
frühen
operates
Parameter
cool
besorgt
erweitern
Haut
aling
bright
ilit@@
Opera
Koh@@
Musi@@
Mark
worst
phones
Somit
93
A5-0@@
promise
geeignete
teils
begleitet
seu@@
meter
festgelegten
fut@@
offizielle
Besitz@@
gaben
H-0@@
Papier
richtlinie
ners
dei
graph@@
diert
Schön@@
Be
Ange@@
Tag@@
Fernsehen
Innenstadt
gek@@
Haben
Would
sco@@
Rechtsstaatlichkeit
normally
intelligent
steigern
Fr@@
Pack
Events
fishermen
Sonn@@
merk@@
SCH@@
ähr@@
mem@@
digitalen
reconstruction
eingeb@@
61
executive
ote
Dies@@
IMF
bour@@
panoramic
stant
angewendet
1980
SE
gements
stores
max
vornehmen
Anwender
Deb@@
fähige
unfair
stattfindet
luss@@
würdig
collec@@
dness
Parkplätze
einfach@@
entering
tionary
hiking
diskrimin@@
freely
gation
usage
Handlungs@@
kap@@
ison
activ@@
Among
Speisen
pressing
festen
geäußert
ausgaben
Stärke
mid@@
ANT@@
province
Registrierung
izi@@
anniversary
Berich@@
14.
Spezial@@
ares
posed
Öffnung
irischen
Bibliothek
stran@@
linken
eingestellt
Bearbeitung
illustr@@
sende
Reserve
pur@@
bathrooms
ütz@@
verwende
Joseph
presenting
trat
ARE
individually
Kontinent
superior
Volksgesundheit
Tests
voraus
solar
Vari@@
Messe@@
qualitativ
Miß@@
Spitzen@@
Verlauf
ebene
Industry
SC@@
gnissen
Umwel@@
-up
ativer
dated
Strecke
switch
Frist
geber
peri@@
empfohlen
prospects
türkischen
threats
Lern@@
UL@@
Amerikaner
Denmark
casino
tac@@
gin@@
fangen
engines
profits
briefly
Niederlanden
keinem
Content
verweisen
manufacture
Dritte
Strand@@
beenden
CAP
imperi@@
revolution
verfol@@
blei@@
collect
popul@@
highlights
konstru@@
taxi
dollar
Ferienwohnung
Währungsunion
nützlich
lehr@@
prozesse
attached
funded
Kompetenz
gement
Golden
reputation
Consumer
Motor
grown
Überblick
neighbouring
labor
Cou@@
liable
Dass
leich@@
Minute
selber
poses
Herz
adds
acknowledge
94
fers
Wellness
ecological
Ama@@
Tel
chern
Wandel
akzep@@
Kategorien
cious
Kapital
bewältigen
eur@@
wage
adding
Gelder
Intel@@
belong
pap@@
gestärkt
herrlichen
Up@@
BSE
Jugend
räumen
langer
teaching
5,@@
gelesen
Consequently
dlicher
Wirtschaftskrise
mented
low@@
gesetzlichen
strah@@
9.
sleep
genaue
ehrt
antes
aster
öff@@
sä@@
emen
flug@@
engaged
alu@@
Kampagne
überwinden
stunning
gam@@
lichsten
sichergestellt
operated
Umweltschutz
varied
gewer@@
ati
struggle
zerstört
begins
Öl
Herbst
synchron@@
Span@@
gegenwärtige
Residence
efficiently
Licht@@
einf@@
erklär@@
festi@@
Andererseits
folge
kus@@
Autobahn
gkeiten
hü@@
camp
ats@@
Richard
schä@@
lü@@
stuff
án@@
loser
three-@@
78
ergänzt
Zürich
meets
eria
sible
CDs
Bestimmung
ziger
liert
Bord
Zahlung
Maschinen@@
kehr@@
äm@@
Länge
unmittelbarer
eo
Cel@@
heading
ø@@
rad
genes
struc@@
twice
froh
Vereinfachung
past@@
Protocol
Auftrags@@
VI@@
proportion
Sky@@
tain@@
antly
cla@@
Instruments
Es@@
integrierten
Florenz
immer@@
cin@@
behält
journ@@
eigener
itable
kennt
mile
Potenzial
Steuerung
Ke@@
hes
CD-@@
76
stärkere
riding
Micro@@
wort
Bour@@
Debatten
eurozone
surprise
Cab@@
recording
makers
combines
speciali@@
glo@@
teste
Dokumenten
iel
Mod@@
graphics
ř@@
eingesch@@
Using
gleichermaßen
Hohe
OK
sufficiently
Bed
Kern
mistake
Dro@@
Text@@
aring
zeichnungen
Montag
kontrolliert
ent-@@
Belgian
ial
Autos
frem@@
bs@@
pillar
ctions
lier
Freund
DC
program@@
Kaffee
lieben
Miet@@
zukommen
CN@@
Resolution
Vir@@
visual
Tsch@@
pace
prop@@
Pot@@
о
Wesentlichen
rechtzeitig
rad@@
territorial
Š@@
Nat@@
langfristigen
Erhaltung
Ve@@
DR@@
Berichterstatters
nar@@
19th
Satelli@@
Sound
kilometres
urgently
heads
Society
Beseitigung
phenomenon
Saf@@
zige
angemessenen
seats
altung
wendet
warning
sophisticated
push
codes
rolle
Have
Verein@@
Chem@@
BC
occurred
ho
n-@@
FA@@
Gau@@
Presse
scientists
anzubieten
spite
c-@@
fro@@
relates
legitim@@
ht
Ven@@
acqu@@
EU-Mitgliedstaaten
cit@@
shuttle
stration
yard
meister
diplomatic
iling
Suites
klassi@@
arising
negativen
medicine
logical
such@@
schnit@@
candidates
60@@
2nd
shel@@
Conc@@
Renn@@
Saison
convenience
native
Polizei@@
Tür
bedeutenden
Zw@@
Email
Oberfläche
Phili@@
Kandidaten
Schn@@
Science
derzeitige
gia
garage
kanische
binden
inspired
erzeugen
Detail
typischen
Black@@
zia
ean
mag@@
Schulden
unentgeltlich
feet
Parlamente
Afri@@
specialists
Mechanismen
ktor
effektive
Projekts
zü@@
College
Bedien@@
Straßburg
acquired
stammen
lien
causing
damages
spä@@
Gewinn@@
Rh@@
virtually
execution
pot@@
bly
innov@@
illa
meals
UNO
iens
anzeigen
Benutzung
seconds
в
besucht
sorge
records
mögen
zwingen
gesam@@
Ombudsman
appropriations
concert
ín
schö@@
Pension
Archi@@
Luxemburg
lenken
inn
upgrade
Lit@@
ahn
angenehmen
stem
Area
uniform
Ok@@
bot
sand@@
Children
recognize
habit@@
var@@
oldest
za@@
vi
IM
Versorgung
ici@@
fällig
74
91
intends
constructed
rechtlich
ght@@
Dingen
Bereits
honour
projec@@
reis@@
Lux@@
Bir@@
gültig
betrieb
choices
geographical
fing
integrate
highlighted
Appartements
vis
ı@@
Personen@@
Berge
Explorer
boost
Professional
lis
rum@@
Lastly
free@@
ão
Further
marine
resulted
Bedürfnissen
Verkehr@@
pick
Kopenhagen
bility
operator
GE
stoßen
erstaun@@
oring
succeeded
engage
construc@@
rable
ily
sichtlich
Fluss
polis
iges
bewahren
Tonnen
ländliche
angenehm
EV@@
untersuchen
eld
außen
producer
essentially
pas
aktuell
Patent@@
Direkt@@
wartet
ases
Religion
Islam@@
referring
consequence
entscheidenden
hidden
strictly
gradually
Innovationen
dres@@
Mart@@
vention
coherent
Bol@@
checked
tile
boats
ua
г@@
prin@@
knapp
urlaub
Audi@@
Gem@@
Sobald
bi
errichtet
Leit@@
kümmern
hierzu
realer
Bom@@
konkret
SAP
350
Sierra
wertung
dauer
Eur@@
classical
zy
Av@@
Recht@@
kontrolli@@
Parti@@
champ@@
tö@@
Mass@@
manual
widespread
hou@@
500@@
gehörigen
IK@@
Augenblick
CL@@
radik@@
vorgestellt
--@@
Stamm@@
Nikon
Sonntag
Saddam
reporting
Ägypten
я@@
losigkeit
beinhalten
narrow
entsp@@
affects
4-star
than@@
berechnet
incorporated
auffordern
explanation
müsste
81
restri@@
bü@@
Lesen
ologisch
Hinweise
bay
passing
sitzen
vos
verse
denjenigen
Hum@@
Eng@@
Häuser
lian
finanzieren
tant
Kle@@
Regulierung
pflich@@
Hän@@
taining
Senkung
Tauch@@
überlassen
Differ@@
Imp@@
troops
Dialogs
ament
aviation
Sup@@
zel@@
Ty@@
Drittel
Staats-
schw@@
spezialisiert
Nokia
Common
eless
favourable
lla
Car
praktischen
grünen
forth
maxim@@
colors
atom@@
gefähr@@
Fläche
produkten
revenue
ington
prote@@
erklärte
angeb@@
rot@@
teachers
fot@@
Schreiben
human@@
30.
Besuchen
Zusammenhalt
hop
klasse
tnissen
Intern@@
gross
Vie@@
Ausbildungs@@
Small
kämp@@
var
gekennzeichnet
snow
Warcraft
dation
gastronom@@
ausgewählt
soil
Asi@@
stories
Hindernisse
wechseln
contrac@@
Govern@@
wu@@
alcohol
sement
victory
kolle@@
anne
Nachhaltigkeit
Porto
agents
projekt
airports
Anmeldung
Käufer
vergleich@@
beer
freund@@
UNESCO
ray
EE@@
Vertretern
befasst
bungen
Stock@@
manu@@
diff@@
fted
geschickt
Ansprüche
Mechanismus
Höchst@@
girls
constitu@@
grund@@
bett
Hard@@
ehmer
Module
Premierminister
cas
stick
Studi@@
Eth@@
Beachtung
renoviert
Al
Sicherheitspolitik
weak@@
ements
llen
¼
Todesstrafe
Rech@@
considers
fes
exact
Jugendlichen
TS
feh@@
outs
anwen@@
repair
sent@@
Macht@@
participating
Pflanzen
ached
wes@@
Mandat
kra@@
ault
Ergebnissen
Department
Erst@@
lica
See@@
Urteil
verfahrens
Pacific
Line
beschrän@@
akte
Danish
encouraged
GR@@
verkehr@@
lit@@
Cooperation
amp
olive
surprised
Übertragung
Brun@@
ires
weltweite
Ay@@
mouse
gelangt
stechnik
atur@@
sexu@@
Glauben
prosec@@
Widerstand
programmen
hole
betrieb@@
geführte
gehandelt
AP
capabilities
stayed
Ly@@
Todes@@
diesbezüglich
domin@@
älteren
CR@@
gänge
specialized
teen
Fron@@
wesentlicher
willingness
versammlung
keys
west@@
müssten
attend
cer
Truppen
eventuell
beeinflussen
chinesische
PA
observed
Poker@@
porting
übersch@@
contextual
organiz@@
Wirksamkeit
Investment
ve-@@
Nor
Constitutional
hills
achievement
Helsinki
aktu@@
Entfernung
günstige
märkten
Airlines
Team@@
Vice-President
sied@@
world-@@
compar@@
prison
Symbol
Ersatz@@
clock
broken
vable
ost@@
gefährdet
utmost
DER
sidenten
propor@@
rank
Apart
Authority
Marken@@
mäßige
Journalisten
begrün@@
Jer@@
Scho@@
Chile
tut@@
bringung
festzustellen
setzte
Finnland
prisoners
Aktien@@
europäisches
Anim@@
hungen
booked
zweifel@@
seeks
wander@@
tigkeiten
vent
funktion
Urlaubs@@
gewählten
Betreuung
87
verletzt
Civil
Oliven@@
fiziert
Mexiko
regulated
Erlebnis
conferences
geblieben
insist
Versammlung
Louis
Eff@@
promises
ever@@
thri@@
ober@@
chter@@
know-how
Datum
Gewal@@
wooden
Direc@@
bild@@
opens
sterben
Holz
clarify
endet
preserve
enne
wonder@@
crises
oftmals
accidents
Netzwerk@@
roof
Weil
Plug@@
A.
shore
liger
A.@@
dest
Ner@@
V.
composition
armen
arm
developers
Inflation
Terms
Sound@@
associations
Fehl@@
esc@@
Cle@@
scheduled
wahr
UR
akes
Präsenz
ood
C.
sequ@@
neun
jedenfalls
angewandt
professionelle
benutz@@
Nam@@
abend
spät
correc@@
Är@@
ples
sauber@@
moderni@@
Billi@@
Visi@@
Fur@@
momentan
ärer
illegale
theore@@
TE
Arab@@
Vic@@
ices
omp@@
Dokumentation
Einen
theatre
Finde
alongside
Seg@@
porte@@
Mädchen
By@@
Räume
geregelt
roll
kehren
convention
ý
iring
Jerusalem
organis@@
percentage
indoor
Strände
alitäten
homo@@
क@@
by-@@
variable
Portal
soeben
permission
xis
Fire@@
Kohäsionspolitik
Franc@@
frequ@@
daten@@
bru@@
reise
längst
Access
BS@@
stätigkeit
infolge
2015
ergänzen
Gemeinschaften
Wohnzimmer
crew
Schu@@
quotas
Dresden
edited
Travel
evident
Tabak@@
schwierige
HD@@
olo
catch
purely
recogn@@
HD
e.g
bewer@@
hopes
studi@@
harmful
dist@@
mentation
bun@@
Ken@@
geliefert
airlines
convergence
regelung
wirkliche
Rock
nehmer
navigation
Modernisierung
Ky@@
verwal@@
stung
ansehen
&apos;m
oli
schwere
Ratschlag
6,@@
usw
Cock@@
festlegen
QU@@
palästinensischen
contradi@@
Stell@@
Verwirklichung
ION@@
finanzi@@
wur@@
Frauen@@
Samstag
Aufzug
Vorstellungen
dire@@
clim@@
branche
anzunehmen
charakter@@
Spitze
Lü@@
Haar@@
Basel
gon
Regional@@
gesetz
seemed
eries
dispute
Speicher@@
Kie@@
Lis@@
discount
hinweg
Vertrag@@
incentives
uring
Versicherungs@@
Zuge
regierung
Jedoch
bewerten
ept
charm
stake
loading
vierte
Spezialitäten
calm
Florence
Andalu@@
Ticket
Wild@@
compulsory
B5-0@@
ě@@
acks
Energieeffizienz
ENT
ential
DV@@
agne
Wirtschaftspolitik
läu@@
string
alisierte
wäl@@
199@@
Doppelzimmer
layout
clicking
ned
implications
communicate
objec@@
aufzubauen
umin@@
sien
Rin@@
radical
kräf@@
ansprechen
suff@@
chron@@
Muslim
accounting
humanitären
20th
Betriebe
jk
denkt
encies
Operation
chtigkeit
relationships
Übrigen
netz
Cuba
onal
governing
Verzeichnis
hur@@
sektors
kle@@
minor
ao
ultimate
superb
fan
adventure
Errichtung
Burma
Schulden@@
tious
expand
hervorragend
Weiterentwicklung
organise
geschlossenen
cky
distur@@
entliche
Riviera
arts
plug@@
Chairman
istisch
elli
HU
hinzu
ünd@@
BM@@
wächst
array
Feu@@
expense
Product
ex
transfers
pilot
öl
12.00
enjoys
Bildern
bearing
thaus
Michel
Jesus
ened
hä@@
power@@
Treaties
forming
Stiftung
decre@@
Typ
unch
afrikanischen
verringert
Unterkünfte
Fei@@
arians
initially
meaningfully
Milch@@
Philosophie
offenbar
mische
stam@@
ehemalige
tigungs@@
Verbrau@@
itation
Leipzig
ali
strukturen
Nigeria
multilateral
believed
Argumente
Amts@@
tains
Jon@@
medieval
Viel@@
IP-@@
bahn@@
Außen-
Search
Gay
wife
Software-@@
dunk@@
enger
krimin@@
Traditionen
83
Herr@@
approaches
Hit@@
м
Edinburgh
staying
Flughäfen
Volkswirtschaften
zahlungen
statten
closure
Zwar
tagen
enthalt
bek@@
Zypern
manchen
lement
versteht
Bücher
stag
dateien
italienische
entfernen
stische
iness
technique
ry@@
gast@@
nei@@
Rand@@
Joint
Werden
richti@@
Schwellen@@
äumen
Auflösung
Schüler
Listings
maybe
Connec@@
tliches
Verteidigungs@@
berühmte
stry
Werten
smooth
Wohnungen
Account
Three
Die@@
digitale
Inn@@
Jac@@
volles
enforcement
sively
tags
Bö@@
kür@@
Engineering
Umweltfragen
magn@@
wind@@
Wähler
busy
studied
remarkable
Meg@@
poker
Grundlagen
digungen
sprechend
retain
Arbeitnehmern
Sektors
Syria
Jewish
Ausarbeitung
Armen@@
describe
Big
CEO
Akteure
mern
shortly
ücken
Schei@@
eland
Hen@@
MP3
woo@@
mel
addressing
Annehmlichkeiten
Objekte
Az@@
fair@@
kontextuellen
entieren
concentration
Nich@@
entdeckst
Fundamental
Wissenschaftler
mehrfach
Firefox
Vermittlungs@@
employed
SQL
Safe
Human@@
arium
Adri@@
Samsung
permit
elev@@
chi
Pak@@
eliminate
.net
alists
entstand
Krieges
audience
Salz@@
Valencia
bought
endor@@
garanti@@
Glei@@
überzeu@@
verwendeten
Read
Nord
Wiederaufbau
Kit@@
blan@@
Peti@@
Orten
Danach
Fahrer
1.5
alter@@
saf@@
lio
Performance
repeated
poorest
kostenlose
grammatically
portra@@
gäste
schemes
instru@@
eingebracht
geograph@@
ingredients
zo
Fabri@@
contextually
Jean-@@
selec@@
1988
netz@@
Filme
geniessen
hinzufugen
Arena
partic@@
NE@@
enormen
IX
Free@@
qui
assigned
amended
mon
Work@@
alisi@@
Baby@@
sozi@@
25.
Allah
Ehr@@
kontextuell
buses
chts@@
grammatisch
erteilt
negotiation
tender
exposed
collabor@@
Einer
ж@@
180
Tieren
verw@@
Make
Deutschlands
Verbraucherschutz
appe@@
exec@@
medicines
Gesetzes@@
constitutes
ados
eur
dial
Jung@@
verhältnis
gy@@
ype
Himmel
Bla@@
chairman
Full
Schlusselphrase
vorzunehmen
flat@@
Schlusselwort
aufgezahlt
cop@@
ć
verbindung
gesellschaftlichen
nutzt
tags@@
Cir@@
odi@@
Hardware
beseitigen
Internetzugang
tali@@
contra@@
chairs
fehlen
nehme
lish
Entwickler
Appartement
vorliegen
Bak@@
iss@@
Sieg
werks
Co
beu@@
Ausbau
quellen
anwenden
maximal
ausüben
Ech@@
füllt
caf@@
geschäft
hinaus@@
campaigns
H-@@
Dänemark
extending
prize
ank
certified
Nehmen
ized
desto
neo@@
stätten
berger
Aussage
gab@@
Strah@@
aufbauen
Palma
chapter
Frequ@@
rö@@
phy@@
arranged
vorgelegten
hinzu@@
ausser@@
gering@@
interne
translated
Gibt
Zwischen
milit@@
cted
reagiert
poll@@
Wit@@
evol@@
Serbien
Denken
pop@@
legitimacy
managers
terror@@
Kommun@@
dor
stur@@
verständlich
verl@@
Go
planen
Lernen
no-@@
überwachen
fizieren
beantwortet
Kh@@
beln
financed
dumping
aking
newsletter
ändert
appro@@
sad
änder
trained
Wasch@@
ope
shor@@
Pir@@
Ausweitung
Together
bedürf@@
boasts
til
ück@@
Km
halt@@
drin@@
asset
appointment
diving
ierungen
Wall
professionellen
Russlands
grund
Web-@@
glie@@
ruhige
110
Sem@@
Übergang
Plenar@@
Il@@
ratification
CA
Zeu@@
lass
städ@@
wissen@@
Subject
desirable
Max
gemeinsames
Metro
fewer
gebühr@@
tu
Mängel
Katalog
eingeleitet
neighbours
folder
südlichen
residential
completion
stens
umgehen
baus
eien
html
ech@@
Times
ede
Sowohl
künst@@
gesucht
Moder@@
paths
NICHT
PAR@@
Abfall@@
weilen
Vordergrund
loaded
hotel@@
Start@@
autom@@
sizes
height
Burg
advis@@
bevölkerung
ungst@@
ownership
Universitäten
prohi@@
günstigen
Wand@@
erh@@
teuer
Satz
communic@@
Transfer
Vorsitzenden
bearbeiten
gewidmet
Gruppen@@
frequency
urgency
sorry
ji@@
Modul
electrical
preferred
Ruf
suche
beach@@
Program@@
gewöhnlich
anen
IWF
suggests
Moscow
Erwachsene
BA
examination
fresh@@
Haf@@
Beru@@
Lor@@
alisten
ship@@
Slovakia
Wednesday
definieren
hochwertigen
Green@@
lock@@
Besitz
kräften
verstehe
tness
gels
hinzugefügt
Main@@
Cit@@
gerechte
Real@@
zeichnete
segment
richtungen
becken
bla@@
Bestätigung
moments
enjoying
inadequate
Bezeichnung
solved
ständi@@
new@@
innovativen
logo
references
wand
Unions@@
HIV
gerung
Souveränität
deserves
Stur@@
Empire
empty
satzes
collapse
zugs@@
trags@@
hist@@
GA
fascinating
Siemens
wick@@
enhan@@
Gegner
SP
mäßigen
ped
iron
thumbnail
listening
Erfolge
elegante
mixed
östlichen
Einsatz@@
Series
gegebenenfalls
exemp@@
landwirtschaftlichen
Bestell@@
os@@
vez
appar@@
Mittelmeer@@
staat@@
ury
League
nächster
iPod
herstellen
Export@@
keineswegs
Sens@@
Spaziergang
whereby
guar@@
erhoben
üblichen
Arch@@
il-@@
Wen@@
Regen@@
ref@@
begun
cker@@
Eines
broad@@
eben@@
84
underlying
bekann@@
Kooperations@@
Hof
betre@@
erkunden
fire@@
Anonymous
proz@@
travellers
Immobilien
Rechner
freier
Genau
sely
Vereinigte
Zweiten
K-@@
foundations
Können
tivity
Lohn@@
full-@@
divi@@
Rit@@
ologischer
conciliation
pper
Cr@@
Gottes
signing
vacc@@
prefer@@
gestiegen
besonderes
behand@@
Sab@@
Niederlande
repeatedly
escape
achtet
utt@@
klin@@
isse
Inc
steller
zusehen
zin@@
secondary
Insgesamt
Edi@@
Boot
journalists
compete
erstes
sional
Argument
dramatic
occupation
ausgehen
Intergovernmental
Café
kün@@
bonds
RS@@
aden@@
unnecessary
gefährlich
ökologischen
suited
Atlan@@
Ehre
Employment
d.@@
Blair
vollem
ware@@
Werkzeug
Besonder@@
sozial@@
hilfreich
herzustellen
Oli@@
pic@@
cken@@
saal
Stri@@
lor@@
reads
PM
Existenz
ms@@
LIN@@
entsch@@
stärksten
300@@
religi@@
Revision
ille
parlamentarischen
Ltd
Wind
expanded
partial
pft
ador
Monte
130
bud@@
berichtet
hundert
ansch@@
cancellation
evi@@
Verkaufs@@
ktiv@@
bigger
loses
welle
ME
considerations
cookies
würdigen
Klassi@@
Anbetracht
zent@@
veröffentlichen
kurse
Patri@@
angehen
Nichtraucherzimmer
gige
Erzeu@@
umfassen
offiziell
economically
intensiv
commit
kas
ausländischen
sever@@
observe
Republi@@
Several
ids
gehend
erend
asp@@
ign
enheit
tia
Ausblick
splendid
losing
erleb@@
Cop@@
Ingenie@@
Prozeß
hence
én@@
Saint-@@
effizienter
natur@@
Glück@@
violation
Sekunden
größter
zahlt
gebene
Ministry
1986
Effekt
comparable
Fassung
Fisheries
Quell@@
Kommentare
instrumente
bug
31.
höchst
forwar@@
Modus
ы@@
verbreitet
cope
gesetzten
mass@@
OLAF
kit@@
beteiligten
Internal
tax@@
principal
Nizza
vary
enting
gegenüber@@
konsequent
euer
Aktu@@
TE@@
erwiesen
Entschlossenheit
pec@@
Montenegro
löschen
Publikum
Ablauf
funden
characteristic
Konvent
Ran@@
Kau@@
schwedischen
instantly
sport@@
timetable
Anmerkungen
thorough
Düsseldorf
Sun
elektronische
Swi@@
baby
ehm@@
coastal
maj@@
vorsch@@
Gas
enburg
Leben@@
representing
auswählen
Kopf@@
incorpor@@
gemütliche
Demokraten
liz@@
lively
Stan@@
false
Prof.
zusetzen
regionen
genuinely
withdraw
ahnen
designer
prozeß
sessions
Antri@@
Migration
Over@@
Corporation
Nation
examined
berich@@
reibungen
Gebühren
Chief
generell
debating
Kompetenzen
günstig
Lom@@
Edel@@
Cl@@
angle
erheben
tat
Filter
existieren
carte
τ@@
Gaz@@
Verbrauchern
paket
lans
Marco
gefühl
band@@
stein@@
KDE
smart
Arti@@
thro@@
Quark
Woh@@
Erreichung
bon
gelegene
lette
fat@@
gift
informal
purchased
Rechnungs@@
ción
Entwick@@
Schau@@
diver@@
Original@@
anten@@
textile
genau@@
bürokrati@@
Aspekten
Know-how
tätigen
optional
möglichkeit
nov@@
betriebe
mung
Lot@@
Patten
bedroht
Hör@@
ad-@@
Bekann@@
integrierte
Bay@@
thei@@
standes
izing
Prag
seiten
openness
Modern
schriftliche
grenzüberschreitenden
Tun@@
Level
ago@@
blick
Ausrüstung
slopes
Pflanzen@@
widmen
loans
Alps
vertraut
häl@@
delete
Event
speeches
high@@
Coun@@
Ratifizierung
autumn
по@@
featuring
fare
sample
blind
LAN
seln
Vermögens@@
Heimat
Bestellungen
hard@@
linge
tolerance
eding
falling
intentions
foremost
turns
Palette
over-@@
kter
Lehrer
schar@@
ly-@@
Sachver@@
gewicht
perform@@
soul
Storage
kleinere
exist@@
adult
apparent
schung
bewus@@
Bü@@
beispiel@@
spectrum
quest
civili@@
Bevor
Stahl@@
Chin@@
pay@@
Updates
gestatten
bewußt
Inv@@
dacht
Tickets
bruch
ghter
olle
Rennen
alternatives
geous
hohes
Solar@@
tigte
sichert
Risiko@@
situ@@
fft
schwi@@
affili@@
Wett@@
Ima@@
früh
arabischen
dition
1945
Clubs
horse
kostenlosen
fell
papers
accessories
Autor
genauer
wehr@@
hafter
weichen
bewegt
simultaneously
vac@@
wel
subsequently
exten@@
ktiv
Source
TV@@
LAN@@
Ideal
Venedig
Brücke
strike
erfol@@
zeigte
pol
ris
allo
ideally
Sz@@
rated
ethical
Ashton
desktop
Behörde
sunny
destinations
förderung
complaints
accuracy
Laden
moreover
codecision
arily
W-@@
Abteilung
beibehalten
erwerben
Spor@@
ket
History
wai@@
Morocco
langem
dend
lights
ähnlichen
manufactured
viewed
Super
Keine
afford
ffs
Vorrang
Bab@@
teilungen
branch
überrascht
affordable
verla@@
destroy
Greens
finanzierung
agen
logic
atri@@
onic
Rü@@
nich@@
posts
Konvention
Val
Australien
t.@@
respects
erie
calendar
Statistiken
BER@@
Schad@@
counts
tiere
Weine
Steigerung
vertrau@@
expenses
Dur@@
smoking
maßen
Slowakei
Gemeinden
Press
vermittelt
viewing
zugeben
EW@@
Durchsetzung
devoted
Soldaten
mechanical
terrible
hielt
falsche
Uns
bits
Festplatte
umgehend
getreten
measurement
öffentlicher
ér@@
artige
URL
DS
hang
unterschiedlicher
earn
7,@@
Weiß@@
alls
Klarheit
position@@
sitz@@
ckets
excursions
79
spots
emo@@
key@@
Wichtigkeit
Schil@@
WTO-@@
e-
solch
на@@
Automati@@
üh@@
Run@@
num@@
derart
arrangement
Betrieb@@
chemische
Arts
і@@
ior
Häfen
celeb@@
α@@
cost-@@
guaranteeing
Ausrichtung
gü@@
zero
Schicksal
der-@@
shing
Ursache
accordingly
24.
funktionen
fahrzeuge
venture
Jahr@@
funktionier@@
Kenntnisse
zweitens
Für@@
survey
erkennt
Schulz
Village
drop@@
zweiter
erteilen
behauptet
attra@@
grand
Kein
Haiti
ña
som@@
stechn@@
Maß@@
gon@@
clarity
ea
wachsende
fter
Caf@@
ा@@
Youth
importantly
elem@@
Dynamik
bewegung
vocational
verurteilen
gebenen
Garantien
xel
Otherwise
tips
Formul@@
Growth
sid@@
nä@@
bak@@
1987
aben
condemn
Palestinians
gues
tribute
1985
anzuwenden
icht
Gö@@
here@@
acceler@@
composed
hochwer@@
Lager
Werkzeuge
authors
Vorgehensweise
atik
äden
prob@@
continuously
flexibel
geringen
plate
Reser@@
custom
jährlichen
Export
dal@@
motorway
Library
schwan@@
LT
answered
histor@@
Ach@@
Section
mur@@
Sports
Audio
Seele
inspection
schalten
Apart@@
kombiniert
ph
ichten
Plätze
relief
reibungs@@
verbreit@@
spanische
Volkspartei
tragedy
preserved
jointly
frü@@
residents
Nordic
geren
Lap@@
dien@@
inclusive
Tak@@
FI
Wie@@
transaction
Program
forgotten
ancy
ij@@
Mittelmeer
Herkunfts@@
Schle@@
angebote
revised
alled
hell
refused
herrsch@@
nahme@@
ke-@@
centers
maß@@
Dep@@
aktualisiert
lüsse
tragic
terminal
Gü@@
Kommissionspräsident
Hände
zierten
gebäude
üsse
mäß@@
komplexe
Distribution
Solana
Lateinamerika
bewertet
violent
Fleisch
Spre@@
Bud@@
Immer
Bergen
äder
verursachen
dieren
afraid
Ferienwohnungen
Fortsetzung
gerich@@
beabsichtigt
sender
noon
lac@@
oppose
Menschheit
scar@@
Strom
beweisen
mand@@
fifth
wirklichen
Versand@@
buying
vertritt
pain
Felder
ool
Diesen
CO
urg@@
Partnership
gehörige
GO
Entwicklungshilfe
rene@@
SDL
anzupassen
taus@@
blicken
Betreiber
umfangreichen
FC
lassung
entran@@
veran@@
William
broader
Versprechen
Mir@@
inneren
Weltkrieg
certification
-und
Zuverlässigkeit
Garten@@
stopped
margin@@
width
behavior
Bun@@
befürworten
onia
iles
instruc@@
orientation
ен@@
herausge@@
jurisdiction
Mobil@@
gemütlichen
Tief@@
ava
Ereignis
Brü@@
ausgestattete
ax@@
Wünschen
Inhalten
ð@@
erheblichen
terin
erarbeitet
Kürze
argue
biom@@
Schreib@@
Rub@@
Aussagen
onds
doubts
ep
ceiling
eure
fünf@@
Verwal@@
Francisco
alistischen
Halle
Zimmerbeschreibung
deadline
fix@@
arbeitungs@@
Water
deci@@
consum@@
GAP
Weiterhin
promoted
äuß@@
assurance
Reinigung
ktor@@
technisch
potenti@@
gradu@@
fragt
überra@@
jun@@
symboli@@
eriert
Copyright
Kredi@@
gan
änge
Service@@
igungen
aush@@
traum@@
Docum@@
External
komplexen
könne
ku
Heads
Tech
begegnen
oli@@
SK
Offenheit
vie@@
niedrigen
KG
relaxed
Einzelheiten
Alternativen
commerce
typisch
stattgefunden
Gui@@
gingen
E-Mail-Adresse
Haushalts
Ry@@
Kennzeichnung
Jean
treas@@
nobody
Betrach@@
gepf@@
Problematik
finds
Southern
depth
zentraler
Ass@@
fertigung
brands
harmonisi@@
stet
swi@@
Stau@@
insul@@
geehrte
öse
sculp@@
zustande
honest
¶
xe
Mischung
Comple@@
tower
ни@@
präzise
calcul@@
add@@
engen
Seiten@@
ensu@@
chat
derungen
kit
publish
affecting
Jag@@
po
Sex@@
yers
schutzes
ständiger
grenze
formular
respektieren
arri@@
arbeiteten
perpet@@
klären
Gesicht
von@@
focuses
terrasse
specially
sake
Südo@@
angekündigt
nötigen
Lieferanten
s.com
strebt
Zucker@@
Jan
fortsetzen
deutliche
tropical
viable
vere
fam@@
Betracht
short-term
auswirken
Samm@@
uneingeschränkt
ample
holder
enor@@
focusing
ester@@
ре@@
kunde
NEW
Avi@@
schnitt
erleichtert
Rechn@@
innere
Nachdruck
Hans
dog
Bauern@@
schn@@
stering
verpflich@@
conversion
aled
eleganten
hem@@
belongs
Kul@@
davor
regionaler
Commerce
Dokument@@
electoral
Beschränkungen
vals
fungen
Netze
Labour
Bewusstsein
gebung
Distri@@
Wissen@@
General@@
EG-@@
tradition@@
California
SL
removal
signals
Finnish
knew
exhi@@
pensions
nel
Besu@@
quantity
attended
gemessen
modify
renewed
terung
standardi@@
Net
gestartet
nern
Zurich
healthcare
spüren
mir@@
rufe
arrange
tone
medizinische
Glob@@
Olymp@@
jüngste
tung@@
valu@@
sul@@
vertrauen
einiges
wheel
sogenannte
essing
up-to-date
russische
ander
Schö@@
s-
stige
visits
stren@@
lining
vorliegt
éri@@
derselben
dian
dimensions
vermutlich
Wich@@
Zeitplan
wirft
Gebir@@
gerungen
tempor@@
univers@@
stands@@
Fans
teln
hood
dien
refuse
cir@@
Verheugen
Monte@@
ausführ@@
ystem
Szen@@
stressed
ennen
publishing
recall
erische
fin
issen
tigten
Minister@@
küste
rub@@
Gute
chose
Bauern
cameras
Zielsetzungen
‚
prospect
integrity
österreichischen
endgültige
hn@@
kurzer
progressive
schedule
installations
automotive
Ministerpräsident
wise
cio
pack
Ander@@
Speci@@
stops
convert
Eröffnung
transitional
fts
alise
elen
übt
edy
Empfang
sibility
gieren
Wahrung
Sto@@
closing
organize
advise
Original
judge
realisiert
wunderschöne
Contact
VI
Ford
Baum@@
faszini@@
empfängt
faire
winner
aching
Berlin@@
privileged
whatsoever
expressly
provo@@
rev@@
missed
Übersicht
getrennt
Million
ruppe
Minderheit
monuments
stil
basically
nie@@
30-@@
redu@@
pair
22.
Block@@
evalu@@
FR@@
miß@@
baut
afri@@
Südafrika
Derzeit
declare
angenehme
Protokolls
Hä@@
researchers
Ms
officially
Übernahme
deserve
adjustment
Schnell@@
Past@@
II@@
painting
bag
politiken
zimmern
Kün@@
iet
mini
institution@@
Wäh@@
environmentally
lei
whe@@
ful@@
leistet
fairen
catalogue
tatsächlichen
Ausnahmen
Heimat@@
Beglei@@
Galileo
verbindungen
plane
erweisen
tie
Ski
Freizeit@@
Hafen@@
Sing@@
schir@@
enes
å
Lebensmittelsicherheit
Gy@@
lebenden
verwiesen
moderner
typically
GPS
ony@@
gau
bird
Cin@@
Massage
Гј@@
rela@@
Funktion@@
yo
Betrifft
nicht-@@
od
Cast@@
ground@@
Schmi@@
Nachmittag
Schie@@
presidential
Meister@@
icht@@
Georgien
ranging
1970
Alters@@
herum
GM@@
posted
unterbrochen
Alban@@
SS
drives
erwähnten
Č@@
Representative
hing
certificate
Tarifa
Syrien
delays
less@@
trains
erforderliche
authorized
Kohlen@@
Produktivität
Mar
wol@@
occupied
rational
fit@@
freu@@
Order
exhibitions
credible
ution
Brau@@
Cologne
cles
trenn@@
drängen
anerkennen
Erarbeitung
Olympic
erstreckt
Bevölkerungs@@
EIB
passion
neighbourhood
geringer
begründet
technischer
dienstleistungen
soldiers
genießt
symp@@
uncertainty
sisch
Taten
fa
Händen
TA
formuliert
verzichten
Jahre@@
GUE
promising
stö@@
Game
kompliziert
observation
Kreuz@@
bili@@
ierungs@@
at-@@
tica
Chancengleichheit
populations
lossen
dity
Großen
Ce@@
interven@@
M.
isierung
verz@@
arrest
brauch
gerechnet
komfortablen
Verfahrens@@
feder@@
einst
kö@@
Landwirtschafts@@
mines
olen
newspaper
Illu@@
anpassen
whenever
tion-@@
dring@@
kunden@@
red@@
zugestimmt
interessanten
movies
Automobil@@
Imm@@
bezeichnen
May@@
begünsti@@
Laut
absurd
holi@@
geeigneten
Wat@@
Provi@@
verstän@@
vorsieht
promenade
Drogen
bedro@@
duration
mechanismen
Zerstörung
ignore
yang
ops
gla@@
Fischler
pattern
precision
sovereign
verabschieden
gn
mig@@
icon
religiösen
freight
Augen@@
tension
gebühren
IA@@
lion
ursprüngliche
Engli@@
actor
ateg@@
zurzeit
beneficial
Herkunft
achievements
virtu@@
chers
Bureau
felder
innen@@
Yo@@
Ref
zip
proximity
Milan
tariat
kriterien
klimati@@
ehe
beef
ро@@
emerged
ausländische
vereint
Select
alisierungs@@
Force
frequent
musikali@@
neutral
liter@@
sandy
lös@@
Inclu@@
Kurz
surveillance
gelernt
mmen
Rückgang
Ann@@
Abbau
aufnahme
liegende
Clar@@
Bit@@
erarbeiten
leichte
releases
trouble
patri@@
aks
Fang@@
Tradi@@
übermitteln
Bürokratie
tigh@@
Set@@
Everything
Solutions
Language
duplic@@
IBM
Digital@@
nem
Aufhebung
unusual
explicitly
Prize
dress
bles
ratio
herrschen
weit@@
emphasi@@
Gewinn
schenken
ökonomische
sailing
öffnet
arbeiter
ento
Defence
habt
cross-@@
feedback
literature
ür
archive
Privatsphäre
eröffnen
Fisch
abgesehen
throw
precious
ingu@@
hire
employers
gewünschte
planung
ller
Index
Berei@@
persi@@
SU@@
dieselben
handels@@
Tari@@
ц@@
erien
sensor
Until
tausend
machinery
hört
beinahe
Zunahme
verarbeitet
err@@
Radi@@
sicherer
suspended
diagno@@
prestigious
plätzen
fitted
Schrift@@
här@@
Nation@@
prinzip
book@@
tels
nur@@
Fremden@@
Nichtraucherzonen
gehabt
wahre
Mittwoch
institute
Verfahrens
Lun@@
parameter
streben
marktes
abe
knü@@
vir@@
Wellness@@
Minibar
fuhren
Zus@@
Liberalen
haus@@
distinction
pil@@
anforderungen
bestände
cancelled
140
zierte
marking
gehe
granting
ecks
logistics
krieg
meldung
decor@@
facilit@@
entlich
Presse@@
GP
Audio@@
Beijing
identification
läge
Wiederherstellung
tner
retail
tech
kritischen
Verordnungen
medizinischen
kohär@@
400@@
obligator@@
läufe
Terroristen
Amerikas
Klimawandels
Photo@@
Ros@@
Tabelle
flying
zeichneten
bac@@
concerts
drückt
Gut
verschaffen
compla@@
angenommenen
esta
zugelassen
Det@@
maps
Sav@@
Strasse
kredi@@
xed
toilet
premium
umso
mechanismus
taxpayers
bab@@
23.
dieselbe
postal
chemicals
deu@@
Experim@@
interactive
eigentliche
Gewi@@
connec@@
1,5
verarbeitung
Fli@@
dahin
debated
vermieden
deficits
Tampere
eted
schätz@@
glichkeit
preparations
Klin@@
sized
orientierte
EURO@@
relevanten
spektakul@@
blieb
gebau@@
announce
Kreu@@
Anreize
methode
Argentina
fahrts@@
Sac@@
Sri
plant@@
Erhalt
ruling
Wettbewerbs
Theorie
territories
Händler
certainty
But@@
ssig
Proz@@
feste
utes
eindeutige
Fahrzeug
negotiated
verteilung
prevented
äum@@
Umstände
gemeinsamer
nete
höchster
Roth@@
gression
Doha
Zahn@@
undertake
mist@@
Quad@@
dasselbe
eting
recession
geringe
tauchen
Formulierung
subscribe
cus
integrieren
academic
Finanzen
Att@@
Presidents
Third
Bridge
tisches
reflection
landschaft
Tower
Dri@@
tas
berührt
revealed
industriellen
alty
Kämp@@
schein@@
besser@@
Charme
gne
kampf
favourite
zeichnung
Funktionalität
indicators
behandlung
Strategi@@
europa
rac@@
aufgeführt
alike
Governance
realize
etabli@@
kleineren
Begründung
Experience
Kapazität
consistently
accum@@
retten
publications
9001
zzo
theater
esten
Köln
heated
befürwortet
returns
threatened
unde
Bett
rever@@
tigem
ien@@
Origin@@
agen@@
ratified
HP
heutzutage
zones
menge
die@@
verzer@@
`@@
Schaden@@
mistakes
stützt
Non-Smoking
comprises
Mode
ession@@
tial
zwischen@@
Einnahmen
iner@@
Fremd@@
Angabe
the-@@
gnisse
secondly
admit
Rural
elegan@@
Richter
ophi@@
Binnen@@
zione
untern@@
Schuld
problemlos
entation
berat@@
hesitate
bedauerlich
ml
deaths
Scotland
necessity
esa
einstellen
Wälder
Kel@@
Rab@@
ility
zwölf
purchasing
bahnen
generous
statisti@@
lten
Lul@@
kä@@
civilian
lovers
gegenseitigen
Country
Verabschiedung
3rd
flexi@@
innovations
glaubt
PPE-DE
Fast
Lar@@
jahre@@
insufficient
Trend
Glas
UNG
imported
ax
mün@@
Bahn
displays
zweck@@
Consi@@
rey
Brow@@
trop@@
fün@@
Well@@
licht@@
Mot@@
patterns
Nav@@
aufgestellt
lusses
rung
stücke
Ausgrenzung
Phot@@
à@@
gos
XML
eve
chtigen
ë@@
replacement
En
führungs@@
cali@@
änderungen
lighting
eled
inci@@
Versuche
Anbindung
pak@@
architectural
bene
abgeben
downloaded
Meinungen
späteren
tioned
hunder@@
Leiter
photographs
enced
beschäf@@
thanking
black@@
catering
rischen
Menschenrechtsverletzungen
Stufe
telecommunications
geräum@@
Objekt
Präsentation
Mobili@@
esi@@
datei
beruflichen
profit@@
konfigu@@
eth
ktiver
acquisition
durchzusetzen
split
elf
Peri@@
frau@@
stim@@
kehr
evaluate
bisschen
1979
wärts
Reich
unknown
negotiate
sub-@@
Vertrieb
Rechnungshof
Dok@@
konzep@@
Ausgangs@@
Handlungen
Ful@@
Abgeordneter
Karl
Designer
wünscht
kreis
Jugendliche
entlichen
Dou@@
passieren
Holland
Themen@@
Logik
spare
protest
Bürgerbeauftragten
senior
2.5
geld
Sant
Daniel
Lissabon-Strategie
moves
snow@@
bou@@
airline
Verfolgung
boxes
fails
defen@@
transit
Gallery
occurs
Bühne
ika
Kontra@@
Dun@@
dün@@
Wald
schönes
erlangen
Physi@@
Konzern@@
basieren
empfiehlt
konkur@@
DN@@
Mob@@
Kön@@
guard
spielte
rank@@
machten
beruhen
weis@@
sheets
mail@@
performing
Fak@@
station@@
greenhouse
tages
bezogen
.ch
magic
Anzeige
indicates
zunehmende
Weltwirtschaft
PER@@
wars
verage
lowing
ehrlich
terungen
tus
gratis
claimed
Innov@@
ature
nos
favorite
justify
Demokrati@@
Satelliten@@
fahrten
harbour
alistische
wertvolle
präsen@@
Fall@@
dollars
Produktion@@
ears
Anträge
editor
Energiever@@
Fakten
Schnittstelle
Raums
Excellent
lem
Summe
bureaucracy
argum@@
scre@@
erlassen
PE
Funktionieren
herunter@@
nachzu@@
Wetter
pa
Türen
platten
schlechte
Aufenthalts@@
admi@@
Van@@
boden
placing
maximale
notably
alien
top-@@
gerechtfertigt
patents
Bewohner
wies
robust
Ausbeutung
lassungen
fik@@
polnischen
gelegte
farms
creature
Linien
demonstrates
doppelt
comb@@
fiel
Democratic
atively
brut@@
sofa
Jav@@
sonstige
Belastung
mandatory
kostenfrei
quelle
authorised
Route
Zusammensetzung
endgültigen
umb@@
veni@@
tle
belieb@@
thir@@
schreibt
Bonn
notified
Histor@@
harm
Versorgungs@@
SY@@
angebotenen
Hussein
cooking
mittlere
gebunden
veranstal@@
grü@@
supplementary
DR
worrying
initiated
Kuba
slowly
pays
gewinnt
tise
EIN@@
A4-0@@
Register
Getränke
BS
borne
dual
Gewinne
steuer
einführen
leidet
deutsch@@
downtown
Außenminister
see@@
lichste
heavily
unterscheidet
beschreibt
Conditions
englischen
Fremdenverkehr
18th
Spannungen
ht@@
solven@@
aul@@
Tam@@
sto
Referendum
allocation
goo@@
drucken
atten
humanity
Erzeugung
invo@@
wski
Peace
29.
timely
rage
mers
fications
dges
jeglicher
zehn@@
rist@@
Istanbul
amente
tec
einzig
ues
Doma@@
Look
care@@
Metro@@
Industrial
antwor@@
ret@@
überwacht
Wesen
Intel
measuring
intelligence
rechn@@
clothing
Metall@@
halten@@
whi@@
geladen
passende
organisierten
schwieriger
Adressen
Installations@@
digit@@
condi@@
dauern
Beste
Install@@
ausreichende
ausreich@@
Ordner
Kn@@
eingeladen
High-@@
eignen
Ot@@
normen
Fußball@@
Alpen
gründete
v.
unions
citizenship
verliehen
abgegeben
Heil@@
Schwarz@@
iti
Osteuropa
terien
Georgi@@
Geschäften
qualit@@
effizienten
beeinflusst
nationals
voters
Technologies
agrees
specify
etry
Chr@@
Nar@@
Energiequellen
Feuer@@
aton
Olympus
Wichtig
Gan@@
converted
apparently
Invest@@
Risi@@
Beurteilung
pho@@
Intensi@@
brü@@
wherever
sq@@
D.
oter
Rezession
cast@@
Saal
potentially
anna
caught
geräten
Spektrum
dum
infl@@
ök@@
sagten
9,@@
terer
griffe
workshops
Fünf@@
SC
sey
zwanzig
coal
twin
geplanten
inischen
vielsei@@
Handy
regimes
Muse@@
ablehnen
Fischereipolitik
würdi@@
Lon@@
day@@
zi
differenti@@
copies
pling
dominant
Verlängerung
einstimmig
trags
geachtet
Left
directions
360
künfte
wä@@
Haushalte
nieren
bedienen
Beratungen
abstra@@
Palästinen@@
Jacques
expanding
premises
Dest@@
austausch
Insel@@
inated
Deposit
Part
staatlicher
gelingen
dargelegt
question@@
alla
cancel
grat@@
OECD
israelischen
organisierte
W.
intervene
pru@@
Marokko
automation
tioning
26.
Beamten
stays
gang@@
punkten
trei@@
Ergänzung
gesichert
Fitness@@
Künstler@@
govern@@
District
Vers@@
Mani@@
vereinbarten
investiert
locate
Fried@@
tranqu@@
withdrawal
stones
contractual
craft
schlech@@
Goo@@
Menschenrechten
after@@
stret@@
defining
aturen
beschleunigen
Gärten
Visa
Erfol@@
Rahmenbedingungen
Proje@@
accommodate
ο@@
Studios
eigenem
ärmsten
£
externe
react
jour@@
settled
ę@@
sech@@
Fair@@
horizontal
Galerie
ösen
conservation
contributing
zugute
aussehen
coordinate
kran@@
räu@@
Choose
Hung@@
Master@@
älter
chief
synthe@@
ESS
einnehmen
r.@@
Ungleich@@
betri@@
Israelis
conventions
Still@@
gestellte
leitungen
tonnes
Bli@@
sist@@
applicant
verständnis
cut@@
qualifications
Einschränkungen
Gebäuden
Sus@@
experiencing
unanimously
tries
intense
simul@@
structured
Spon@@
proje@@
onien
attrac@@
mature
Cathedral
Kö@@
betten
lux@@
verstärkte
BL@@
imposing
rahmen
Traum
acci@@
IR
Spri@@
berufen
28.
Erwägung
ssa
Mä@@
powered
Tö@@
starkes
С@@
arom@@
DP
degrees
aces
unterwegs
Itali@@
Which
Beschwerden
demokratisch
systematic
zur@@
platforms
gebe
Eri@@
Iranian
tened
primi@@
License
Föderation
t-
appreciated
Mög@@
geschafft
те@@
erstens
Mengen
revolution@@
teu@@
Monti
ftung
Mann@@
technologischen
thers
Her
exposure
Premi@@
coverage
Amp@@
stützen
Similarly
streng
tons
Diplom@@
mals
bewahrt
Schutzes
rix
Schmer@@
ва@@
zweif@@
churches
IL
Pit@@
vorschläge
flug
schein
terrorists
dero@@
Unternehmer
Ron@@
authentic
drinking
ausgedeh@@
emission
breaking
Konferenzen
BE@@
gebraucht
CH
Phänomen
tough
procurement
franzö@@
außen@@
benannt
Intervention
Bell@@
Lithuania
keeps
hosts
dnis
workshop
Technical
versehen
fenster
state-of-the-art
stattdessen
kei@@
Malaysia
büro
creativity
handled
technologie
benden
breach
ausstattung
iche
Wireless
Stei@@
turing
controlling
inspec@@
Class
Verletzungen
Geben
Aufnahmen
gebnis
neten
Produzenten
eigentlichen
nord@@
teilte
Leuten
silver
Hou@@
ffer
Snow@@
enza
automatische
Secretary
Termin
José
respectively
probieren
Einschätzung
vielfältigen
Feststellung
agt
teilzunehmen
geni@@
Medikamente
fting
Pflichten
erischen
Tol@@
Anwesenheit
nachhaltig
inakzeptabel
ses@@
headquarters
igten
silence
vielfäl@@
alp@@
Terminal
vorrangi@@
approx
erre@@
laser
realen
operative
Gebühr
Unterhaltung
transformation
biological
watching
emerge
té@@
racing
wahlen
ules
mini-@@
vorgehen
mien
entries
Extra@@
Fed
Prakti@@
self
zell@@
diger
Einwanderer
ple
Arbeitsgruppe
Verfasser
blame
ingt
grei@@
beliebigen
Alber@@
hospital
technologische
Feier@@
hef@@
namen
arbitrary
minimal
irische
spätestens
eingeräumt
lé@@
Madeira
zah@@
vergeben
facto
dachte
kostengünsti@@
visitor
Santer
CM@@
urity
bereit@@
sos
Santiago
worry
auseinander@@
Solche
gische
unstable
disputes
Neues
kommerziellen
Sili@@
Cala
sar@@
handed
Slovenia
ys@@
adjust
Desktop
competences
Betrug
oberen
breit
illing
writer
proce@@
Lich@@
elderly
jet@@
ernsthafte
vel
temperatures
birds
Gali@@
Beg@@
tary
Arbeitgeber
schöner
Dritt@@
half-@@
wör@@
pet
gesammelt
pursued
Hunder@@
überein@@
orientierten
Rek@@
ressourcen
konvention@@
schränken
lokaler
warmly
part@@
NRO
Steuerzahler
kids
eintreten
orien
warming
undermine
cz@@
findings
kommun@@
integral
loved
en.@@
Freuen
eas@@
lichkeits@@
zellen
größe
Come
rest@@
rücken
11@@
Innerhalb
edit
Verts
Friedens
Info@@
Vertretung
Lager@@
kontinuierlich
blin@@
auen
essence
consistency
motions
jemals
Mobiltelef@@
rose
fulfilled
insofern
ambition
cip@@
Ferien
camps
Darfur
etri@@
Pel@@
alli@@
Fair
wen
Erweiterungs@@
Venezuela
Var@@
Work
ßten
Spy@@
tube
Bildschirm
rem
ate-@@
Obviously
dep@@
Bad@@
ausgewählten
dat
gnis@@
Geno@@
Yugoslavia
ja@@
ruhiger
equity
erfasst
pro-@@
räum@@
führungen
Profil
recep@@
vels
CP@@
ST
aded
emin@@
т
tian
dium
AKP-@@
assured
gst
PK@@
Gil@@
perspectives
Maxim@@
para@@
derjenigen
ühr@@
fangs
Konstruktion
3000
Liqui@@
Bonus
Gum@@
credi@@
alarm
Bill
Visit
Lad@@
geistigen
Renaissance
Lebanon
ebenen
zeitgenös@@
crops
alleine
Tourismus@@
то@@
Konfiguration
isn
paradise
Emissions@@
Erbe
erneuerbaren
survi@@
volcan@@
compli@@
tations
fehl@@
bestens
wahl
Tennis@@
continental
Angel@@
clu@@
passes
Fore@@
Aro@@
Wiener
ausführlich
Konflikt@@
Vin@@
unterstütz@@
worfen
verwirklichen
salon
venue
Ten@@
proto@@
Drittstaaten
Nom@@
beschließen
gra
modernes
Rubrik
Shanghai
specialities
itäten
süd@@
Brok
sentence
mut
judgment
biodiversity
controversial

Liberal
tnis@@
bewirken
ef
restau@@
Communist
Mehrwert
verpflichten
verletz@@
Konzentration
Editor
Seen
Tä@@
Europar@@
fuhr@@
Drive
well-being
stete
legten
mic@@
Geräten
iny
verzeichnen
Inkrafttreten
concent@@
1984
curi@@
Grundsätzen
fuels
wäch@@
Ausübung
wirkungs@@
suggestion
aer@@
convince
anony@@
Profession@@
beginn@@
Prozent@@
Das@@
196@@
Features
orienti@@
24-Stunden-Rezeption
plötzlich
Process
enta
wages
fes@@
zunehmenden
graphy
konzept
unvergess@@
bags
Krisen
Drei
tured
FL@@
ziel
rom@@
Muster
Aktionsp@@
basierte
Zü@@
Chan@@
Pur@@
Gespräch
Tochter@@
quot@@
Vertre@@
pleas@@
como
deutlichen
uen
gle@@
politan
PCs
erheb@@
blichen
AKVIS
bill
Mountain
Andreas
explains
respektiert
æ@@
ruf
open-@@
Rußland
Woo@@
eindrucks@@
abilität
erweiterten
Eco@@
confident
Zul@@
leather
J.
RSS
receives
Techniken
FOR
kreu@@
agent
hed
lowest
komfortabel
Elevator
xy
oured
arische
tro
holes
ennung
shaped
Live-@@
choosing
Herrschaft
lou@@
defe@@
Organization
Kais@@
Konzep@@
Konzepte
ough
TV-@@
Studium
outs@@
Vill@@
ruft
Taste
rats
ät
Palacio
inu@@
Sitzungen
poin@@
weitaus
Tuesday
Verluste
ös
äf@@
legislat@@
Om@@
Kreativität
demokratischer
berichte
phi@@
strit@@
gend@@
koordini@@
describes
angelegt
bearbeitet
Grünbuch
unemployed
Develop@@
periode
disappointed
sonstigen
schaftsp@@
ordnungsgemäß
Merkmale
affung
Glo@@
Certi@@
registri@@
Anwen@@
Change
ahl
mann@@
Gerichten
typische
gelt
Reader
specifications
erbaut
ect
Smith
Finance
Panasonic
kritische
ń@@
normale
batt@@
vertreter
chef
Ausschüsse
ography
enswerte
ligkeit
gelegten
gesonder@@
gesundheits@@
erfahr@@
artificial
Vertriebs@@
Unsicherheit
hl
Taliban
produkt
Fernseher
bindung
messe
Rhein@@
feiern
Division
Double
Ocean
vend@@
wiesen
Tob@@
cha@@
p.@@
zielt
ira
gaining
schli@@
gur@@
bildungs@@
ball@@
Antonio
threshold
olls
goti@@
völ@@
gefährden
U-Bahn@@
Kirchen
FOR@@
Medizin
liness
Alltag
trennen
minist@@
avoided
adju@@
eradic@@
Rak@@
leid
Cubase
Rand
dena
cache
Milli@@
genetic
fortgesetzt
kab@@
catastrop@@
konstruktive
frischen
substantially
Getrei@@
one@@
angewiesen
demokrati@@
Nacht@@
voneinander
vern
Rassismus
harmony
End
parado@@
estimate
gging
UND
luß
Mom@@
consul@@
Beschluß
practically
Consulting
column
Zit@@
Virus
rom
hte
vorbehalten
bewiesen
flicht
pron@@
Umsatz
noticed
isten
sätzen
bedauere
fis@@
eingeschränkt
cep@@
JP@@
bereitung
novel
Innovations@@
Unterlagen
meantime
wirksamen
zon@@
Französisch
measured
emphasised
Light
vernünftige
Hôtel
performances
ohnehin
nötige
rubber
zentrali@@
Kräften
inte@@
erörtert
qualifizierte
sheit
partnerships
shar@@
Besteuerung
hersteller
Geschäft@@
ords
fate
Sarkozy
beizutragen
chens
teacher
Erfolgs@@
lakes
chambres
Bosnia
consult
Äußerungen
essions
Def@@
450
gelei@@
decent
rob@@
Angriffe
experim@@
versicherung
wendung
incentive
Gipfeltreffen
Motto
Additionally
capture
einzugehen
flag
krieg@@
folglich
Spi@@
bureaucratic
plac@@
Gulf
Unterzeichnung
treaties
Capital
theat@@
girl
fühlt
Bewältigung
meldungen
ś@@
getötet
heu@@
Wettbewer@@
wü@@
sear@@
endem
lesson
Erforder@@
bürger
Sä@@
aven@@
IE
fehler@@
ль@@
Simp@@
basierten
uma
gains
Feli@@
bür@@
Lobby
Kapazitäten
Premium
Kapit@@
fliegen
ktivität
scenery
unterbreiten
realistisch
ailing
spiegelt
Kongress
thoroughly
27.
supple@@
Host@@
vigor@@
ministeri@@
Call
zentr@@
belt
Lou@@
Leu@@
rupt
ght-@@
ally-@@
prim@@
piano
klär@@
eva
EST
pursuant
plates
plurali@@
amending
ulen
vernünftig
solo
raises
Konkurrenz
ace@@
Höh@@
hypo@@
Everyone
rel
Angeles
Bedienung
deutet
deliber@@
kirche
bilder
doctor
1978
х
änder@@
Frü@@
tangible
chro@@
mp
angeblich
verkün@@
Ibiza
Aktivität
Anna
plain
Anhörung
Güter
1967
schil@@
develops
Release
enlarged
ungeh@@
Büros
orientiert
komplex
Vorfeld
glei@@
grand@@
swit@@
Datenschutz
may@@
indu@@
Buchungs@@
shots
konzipiert
Ähn@@
Natural
globaler
Energiepolitik
Inspe@@
Vorgaben
zierung
breathtaking
lehnt
ältere
Schlag@@
Kabel@@
distor@@
Ath@@
Karriere
bilateralen
Verteidigungspolitik
schließe
verschmutzung
Millennium
Four
institu@@
Beschäftigten
Flugzeug
cum@@
stoß
teilten
differ
interessi@@
flowers
Programmi@@
namens
Kaffe@@
erwähnte
discher
Sher@@
Spit@@
Attraktionen
strange
preliminary
fizi@@
drafting
challenging
achtung
circul@@
ota
etz
befrie@@
übermittelt
guides
Feld@@
lingen
8,@@
Komit@@
buil@@
compo@@
vre
gabe@@
signature
europ@@
nachdenken
Merk@@
favor@@
fold
predic@@
steuerung
isolated
Städ@@
Heating
tiefe
paintings
2007-2013
CC
Regulierungs@@
Wort@@
sons
digte
SH@@
Bezahlung
Tut@@
ired
ausgesch@@
fig@@
stati@@
Whit@@
talked
Nonetheless
scann@@
voran
photography
arity
Palestine
traums
pharmaceutical
Young
spei@@
Lasten
etzung
schrittweise
tailored
21st
damaged
frucht@@
inbegriffen
verantwor@@
Zimbabwe
wra@@
Missbrauch
torate
Luxus
aufgerufen
labor@@
jet
verzö@@
detaillierte
ethnischen
finances
Catal@@
Parliamentary
incredible
entrepren@@
bone
Wissens@@
Mittelme@@
aktualisieren
MS@@
endgültig
verwalten
irgendwo
hop@@
familien@@
3D-@@
runde
executed
regulate
reiz@@
brech@@
conveniently
Optimierung
stipul@@
24-Hour
Luggage
activated
läne
ε@@
Prävention
Communication
empfin@@
ysteme
Fluggesellschaften
einhalten
benef@@
CAR@@
dental
austau@@
eingerichtete
füh@@
tress
zielen
centrally
strengen
ver-@@
acknowledged
kontrollen
formul@@
erb@@
Tanz@@
nisses
zips
Abenteuer
Koordin@@
engineers
acquire
Hitler
Iraqi
örtlichen
celebrate
pedi@@
begrenzte
Flugzeuge
schnei@@
deemed
rations
Tom
abund@@
wahl@@
u.@@
Frühjahr
associ@@
Fähr@@
Papier@@
Ecke
statistical
internation@@
Lehre
lick
Besitzer
Flexi@@
erfolgte
nah
Pass
35@@
amo
derartigen
samkeit
beabsichti@@
Sper@@
Hügel
Dritter
eras
finest
forcing
bread
istischer
konstitu@@
tetes
brenn@@
holders
Unternehmen@@
consequently
tering
tless
forums
во@@
Hir@@
aggressive
ignored
-in
characterized
Art@@
battery
beruhi@@
kali@@
oul@@
ça
exklusiven
dete@@
Kernel
interview
aktion
gutem
About
Regimes
controller
Ric@@
sicherungen
circle
derived
login
sst
nonetheless
gefährlichen
gefährliche
blatt
militär@@
compare
promo@@
islam@@
ston
demographic
ehrgei@@
Climate
keen
themes
peak
griff
bra
LCD
Tempo
asen
vorgesch@@
Eigenschaft
lav@@
beurteilen
angeschlossen
Abstimmungen
DIN
vity
thal@@
connecting
registriert
gulierung
phot@@
Übereinkommens
aufgaben
ann
Tool@@
sporting
provin@@
Regionalpolitik
lea@@
vermögen
dlichkeit
File
haven
Übersch@@
Darin
score
eigh@@
Transaktionen
exchanges
ebs@@
Lehren
zten
Konta@@
übergeben
checking
discre@@
forderte
declarations
gy
Panoram@@
Right
Reserv@@
verbesserte
Dienstleistung
erfolgreich@@
seaf@@
Hannover
größerer
secured
Hektar
aya
Subventionen
unden@@
fertigt
founding
Gerä@@
org
Classic
rhyth@@
Bewegungen
konto
Öko@@
ggling
Besuchern
deutscher
kurzfristig
surfing
Entspannen
Einkommens@@
Gegenwart
az
Ufer
erei@@
schol@@
schlechten
Zurück@@
KO@@
grenzüberschreitende
Katastrophen
lege
beiträgt
Justiz@@
verwen@@
devi@@
realized
fought
Advanced
angen@@
unlike
discipline
bedien@@
ähn@@
Alpine
licence
konsequ@@
onder@@
ani@@
begleiten
SMS
surprising
Beratungs@@
halts@@
Schengen-@@
erreichte
Parks
hervorra@@
foods
skilled
cheese
tool@@
adjusted
Soweit
searching
rid
abschließend
nehm@@
kritisiert
mithilfe
Touren
dez
kultur
biegen
abhängi@@
pain@@
verän@@
environments
änderung
würfe
realisieren
neben@@
recei@@
ption
qualifizierten
gewisser
Entdecken
expressing
esischen
walks
Übersetzungs@@
01.@@
Spring
ministerium
gigen
prohibited
unterbreitet
bie@@
propri@@
DL@@
partei@@
funk@@
falschen
hit@@
Indonesia
Lanzarote
INTER@@
jack@@
Konjunktur@@
Taus@@
-Seite
interinstitutional
spre@@
confusion
Sign@@
Deep
reiben
bevorzu@@
149
Ball@@
Inst@@
victim
fears
Trends
dominated
Schatten
acknowled@@
schrieb
recycling
Subsidiarität
vorteil@@
restrict
Gefängnis

mäßigkeit
Leh@@
twenty
ext@@
UM
telling
integri@@
Betroffenen
downloading
mie
erinnere
deri@@
anticip@@
ligt
optical
ungere@@
gangenen
Erwer@@
Pflege
unterschie@@
Vereinigung
Vergnügen
akzeptabel
of@@
1982
geordnet
erörtern
TER@@
gewinn@@
evolution
pregn@@
coordin@@
nic@@
Products
Zimmerservice
kulin@@
eco@@
gym
denti@@
simpli@@
monitored
Metern
Clearly
musik
beth
Discover
tells
guidance
Display
Vermittlung
acquis
branches
korre@@
wording
Kurse
schläge
gewünscht
plas@@
dependence
Siehe
Sand
्
1975
36@@
herrliche
gebi@@
interessieren
Wille
multimedia
recip@@
regrettable
teter
ratifiziert
Gepäckraum
Gewinner
complexity
prominent
monat@@
strenge
Stor@@
Futter@@
elemente
geschlagen
beizu@@
ausführen
Anweisungen
äle
setup
enttäuscht
üblich
gesetzte
nö@@
spiritual
koh@@
dom
beobach@@
Zuständigkeiten
berühm@@
Fro@@
schlü@@
translations
womit
ermutigen
agentur
Socialists
dein
Macedonia
solide
erläutern
außerord@@
MAR@@
Head
CI@@
pfung
einher@@
Supp@@
stood
DH@@
eling
elektron@@
abri@@
Picard
Reaktionen
Generaldire@@
CAD
unerlässlich
visi@@
pos
economics
Regul@@
thoughts
genehm@@
Aktualisierung
Laser@@
kommende
rechtfertigen
beschei@@
Referenz@@
sexuellen
Vorsitzender
Hence
undertakings
she@@
Interface
sustained
ahlen
15-@@
Jackson
defense
automated
stecken
engli@@
Cold
argu@@
dent@@
hierarch@@
Überarbeitung
deck
dner
tägliche
Wiederauf@@
bist
reichung
vorange@@
Onlin@@
stän@@
News@@
negativ
bid
positionen
kritisch
Studien@@
lean
Learning
indication
Aff@@
erhö@@
dell
onie
Bilanz
steckt
shortcomings
Radio@@
japanischen
manifest@@
leiter
langes
survive
5th
energ@@
Genuss
blä@@
Barcelon@@
Arbeitsbedingungen
würdige
fris@@
Norway
Sometimes
Dienst@@
pione@@
Gemäß
transatlantic
Citizens
derten
aps
centrali@@
handels
subsidiary
unzu@@
beschreiben
Freiwil@@
Arbeitnehmer@@
dou@@
estimates
Nature
erzielten
treff@@
tiv
unt
meistens
zigen
näh@@
Labor@@
inters
span@@
Textil@@
belonging
haftet
Parlaments@@
ishes
Internation@@
VO@@
entscheidet
isl@@
gie@@
Sevilla
semi-@@
Bewertungen
Andr@@
condemned
lacking
Streit@@
Realisierung
Tochter
lohnt
vorn
essed
Gestatten
ense
reduces
Wach@@
survival
RI
seminars
Meanwhile
ansonsten
seg@@
hyper@@
3.0
backs
debat@@
Mili@@
DI
Arzt
fach
hoped
editing
fisch@@
Hotelsafe
berufliche
registrieren
bian
Schwimmbad
C5-0@@
geholfen
notion
ow
Word
oting
Armen
weißen
reverse
Inde@@
taught
view@@
tail
Spec@@
flav@@
veget@@
Close
enters
Autoren
excellence
B.@@
mirror
schriften
governed
trails
Zufriedenheit
Kaiser
erläutert
administ@@
Israels
Cham@@
hüb@@
Buenos
bevorstehenden
unfortunate
Victoria
widri@@
weich@@
Lido
alpine
sums
Zusammen
ECO@@
fizierungs@@
Spezialisten
beleu@@
separately
ensured
accepts
Danke
Naz@@
Stadium
aves
Dikt@@
Branchen
Aires
unzureichend
List
Güter@@
upcoming
mining
ques@@
gewachsen
autonomy
Easy
distri@@
married
Aufenthal@@
Under@@
Vul@@
Abstimmungs@@
ausgelöst
inhal@@
Weltbank
kas@@
kte@@
Sir
stätte
zeigten
lit
LateRooms.com
expec@@
Wall@@
emer@@
cau@@
erial
Econom@@
golden
grundlegender
Fot@@
block@@
Herberge
ades
rul@@
rant
sens@@
ökonom@@
ritt@@
exceed
verwöhnen
Weiterbildung
Tisch@@
vorhin
feels
Chal@@
Anreise
accu@@
Roman@@
gged
samen
sert
Hoff@@
Palästinenser
liberalen
Rande
verhäl@@
Anregungen
outset
fts@@
returning
litten
fluss
adel@@
Orts@@
fel
erfreu@@
tam@@
Gipfels
erneuerbare
racism
6-0@@
ions
tape
zeitig
Verantwortlichen
exerc@@
lens
mündlichen
sibly
Dim@@
ypen
gerweise
amend
Stein
tiven
halb@@
Gesprächen
bedenken
Rep@@
Heimatland
gge
mani@@
inen@@
Vertei@@
Tragödie
wachsen@@
Them@@
tika
deser@@
Wü@@
erworben
Europa-@@
Büro@@
Apache
insp@@
künstler@@
Taxi
circulation
migrants
resorts
aten@@
Abstand
Beruf
Karten@@
immense
drafted
Müller
Trink@@
amen@@
ousness
Verträgen
ular@@
Wochen@@
cheaper
exceptions
brain
age@@
begeistert
unlikely
Benutz@@
70@@
Fif@@
Philipp@@
Enter@@
ignoriert
verwaltet
seits
incorporate
keinesfalls
departments
Manche
Non-@@
händler
boy
Mitglieds@@
lon
Erkenntnisse
Jazz
filling
Ministerrat
Declaration
13.@@
Gewerkschaften
Army
spit@@
abandoned
tionality
ament@@
idealen
fault
inge
fur
endo
m.
nutzbar
weiterzu@@
ürzt
droht
Abschluß
Currently
flash
gi
Territ@@
torture
ökologische
delicate
90@@
teilgenommen
Moskau
Juan
invitation
Budgetary
rän@@
geom@@
Nicht-@@
HR@@
gkeits@@
Buddh@@
schungen
Gru@@
Building
Lebensmitteln
Tschechischen
kore@@
simplify
Wikicars
grew
Pierre
fund@@
perc@@
Privacy
verhe@@
Essen@@
Gesellschafts@@
inieren
cion
potenzi@@
atmosp@@
arge
bezauber@@
Tee
angeben
Übersetzungen
Horiz@@
therapie
Verhand@@
alogue
wan
äd@@
Dynam@@
responses
Sowjetunion
ium
Zug@@
thr@@
Voyager
inations
Amtszeit
follow-up
Effekte
bekräftigt
Lebensqualität
orten
Beruf@@
implemen@@
kot@@
schützt
til@@
Massa@@
dreht
inquiry
verdi@@
Watch
Steuer
vine
Anhang
advoc@@
makro@@
crossing
eu
speich@@
show@@
allies
yn
calculated
eingebunden
Patent
frist
Aktien
Erkenn@@
publicly
badly
Fahrrad@@
roughly
reichhal@@
demonstration
accepting
jeweilige
verabschie@@
aga
a.m.
Milosevic
grüne
exploring
Unterdrückung
Christ
preferences
vorkommen
ourcing
sher
styles
zeuge
Above
reale
inning
grants
conjunction
ältesten
bath@@
bauten
Wales
infringement
angefangen
Jak@@
PT@@
bands
large-scale
daughter
haltenen
ul
vegetables
Litauen
rejection
simp@@
exklusive
Empfänger
attract
Libya
fusion
Mittelmeerraum
Wartung
mathemati@@
betrag
utzen
arab@@
dangers
ale@@
penalties
Franz
Einzelnen
ungeachtet
internationales
Unabhängi@@
gesell@@
Clinton
einzelner
ä
Boh@@
Investition
Ein-
discovery
gegenseitige
Avenue
Panorama
unification
failing
irgendwelche
Breit@@
monthly
Aufforderung
Naturally
Buffet
desper@@
1976
bal
characterised
orte
fertigen
moderate
Palazzo
crip@@
Renten@@
pragmati@@
Integrations@@
eingerichteten
ι@@
celebrated
Tyrol
indirect
landscapes
troub@@
GBP
mitgeteilt
Fat@@
einheit
modes
arte
defects
Behin@@
izz@@
gesunden
jects
expan@@
aciones
Erzeuger
landes
Heiligen
klassische
glu@@
Cher@@
real@@
advent@@
mou@@
conve@@
DIE
lessly
conci@@
chocolate
trademarks
doctors
Problem@@
Sard@@
Schattenberichterstat@@
Kinnock
line-@@
D.@@
Rahmenprogramm
Umweltschutz@@
time-@@
00-@@
pin@@
Saudi
gelung
rot
stritten
ganz@@
Medical
vereinbar@@
Kathedrale
hiermit
1968
lehnen
ographic
plä@@
Dir
ausger@@
ria
Service-@@
ror
Wachstums
athle@@
Finanzmärkte
Gl@@
Ausstellungen
kompletten
umfassen@@
Arbeiter
alize
gewählte
Play
combining
freundliches
Erste
Schlei@@
right-@@
analysieren
beträchtliche
spruch
Indem
requiring
gru@@
Libanon
Archiv
Cav@@
Universal
organ
substan@@
lah
reductions
überwiegend
geführten
Journ@@
einheiten
Bron@@
öffent@@
pothe@@
deinen
reinforce
streaming
ordnungs@@
eits@@
poss@@
eded
breaks
Cultural
Albania
Heran@@
riesige
Neph@@
fiable
deleg@@
wenigstens
Put@@
ruhen
Lösungs@@
GP@@
Heritage
verkauf
skep@@
announcement
separated
reine
quarters
assumed
ßer
backed
minds
Terra@@
bases
Alpen@@
humans
sprachigen
Working
Azer@@
zurückkehren
rolling
Zauber@@
Einschränkung
embedded
magne@@
receipt
Betriebssystem
interim
Adap@@
sett@@
Yu@@
hinein
Einwohnern
kompatibel
Analysen
elson
.The
alliance
Import@@
freies
tü@@
Wikitravel
GF@@
zusprechen
quantities
währ@@
einzubeziehen
gesellschaftliche
clothes
homepage
Soft
enemy
tories
Unterhaltungs@@
Sak@@
kunst
Tennis
cool@@
implies
weekly
Schnei@@
ison@@
enorm
Hill
fires
continually
deleted
COM@@
master@@
Gitar@@
verschiedensten
zerti@@
ulated
messer
pursuing
Finanzmittel
Mazedonien
orian
API
stro
verband
slau@@
tv
vergleichen
Lodge
niederländischen
Kun@@
ails
traum
Gerichtshofs
Fab@@
einzuhalten
gebühr
xx
exhau@@
atorium
ion@@
shareholders
bezogene
einziges
inher@@
Ern@@
wäh@@
ogra@@
concentrated
masch@@
Stro@@
Peru
php
aufweisen
konsolidi@@
Entschließungs@@
oth
bte
Coast
unlimited
Esp@@
Kandidaten@@
Logo
Arzneimittel
muy
confron@@
sl@@
votre
ernste
bten
Brief
unprecedented
Jahrzehnte
simplification
loo@@
transformed
Water@@
weigh@@
Haushaltsplans
konta@@
beider
notwendi@@
abwechslungs@@
ssel
identical
Ji@@
LED
coinci@@
tip
Frank
Siena
steigenden
yellow
rence
äufe
übersetzt
Legislativ@@
föder@@
Kabel
horizon@@
wirkungen
AV
Moderne
ric
Mü@@
kos
konz@@
exo@@
Planet
observers
subscri@@
verschieden@@
verträ@@
Ast@@
Ear@@
undertaking
engagi@@
Fahrzeug@@
rem@@
presentations
lossenen
zip@@
Barack
impres@@
Moh@@
Montage
I.
ety
pfe
Chef
Konsultation
interaction
respecting
Ratsvorsitzes
68@@
Dach
defending
Verkäufer
oes
sprä@@
denied
labels
Temperaturen
ständigkeit
ahr@@
reibung
gegenseitig
partition
allow@@
adher@@
Zwangs@@
Zo@@
Wahr@@
US-Dollar
Autor@@
herz@@
orie
genehmigt
bench@@
compatibility
rs
Niemand
Therap@@
Ausfahrt
Ré@@
agements
culinary
vereinfachen
RI@@
klarer
sightseeing
evil
glich@@
Kron@@
Rav@@
reiterate
Kaz@@
Stich@@
Baro@@
continuation
herauszu@@
4th
gres@@
peace@@
ha-@@
Disk
announ@@
mad
thos
hilfen
vorherigen
bliche
Frank@@
expor@@
securities
risen
Tot@@
nau@@
rus
radiation
unteren
lot@@
bran@@
Ris@@
participated
Limited
bathing
wake
Anhänger
Weihnachts@@
charter
Initi@@
PSE
kultur@@
Superior
örung
bration
Instrumenten
lech@@
spartn@@
frisch
tradi@@
Altern@@
FIN@@
ssel@@
Betre@@
Provin@@
up-@@
ois
nennt
Sozialdemokraten
kenntnis
eating
Danube
hat@@
schluss
fak@@
as-@@
profound
nen@@
zerstör@@
U-Bahn
winners
disch
tener
shire
konsul@@
198@@
Temperatur
Bisher
Semin@@
PDF-@@
extrem@@
sicherheits@@
trauri@@
wendungen
Fitness
jähri@@
Marbella
mieten
underline
kommens
pin
Halbinsel
listened
RES@@
forderten
Vent@@
gaming
kennen@@
Age
solving
Plu@@
Scheitern
globalization
refined
Inhaber
chester
beglei@@
gefällt
jährliche
anas
erhol@@
practi@@
Autonom@@
5.000
dam
Standard-@@
radio@@
suddenly
Credit
heik@@
dedic@@
antrag
bekanntesten
analyses
WE@@
fertig@@
ausgewo@@
permanently
schrieben
vorherige
Store
Premier
zuverlässig
löst
Europa@@
Entwicklungszusammenarbeit
quota
untergraben
Eisen@@
denselben
sorgfäl@@
commonly
Luf@@
einzel@@
ssigen
sont
optimum
banned
jan
ausgewogenen
gekauft
FAQ
Auslegung
Bug@@
qualitative
adaptation
influenced
Ursprung
Repräsent@@
rier
gericht@@
Flüge
Mun@@
Sales
stau@@
specialised
Medizin@@
Stattdessen
enthusiasm
annte
gerichtete
ри@@
investigate
gent
berechtigten
ि@@
urban@@
hl@@
Ira@@
dged
thilfe
test@@
Absichten
bien
Kontin@@
Manhattan
consolidation
backing
Hochschul@@
multilater@@
kommerzielle
newspapers
dazu@@
mails
gli
adly
bewähr@@
Fig@@
wohn@@
ï@@
konfli@@
Industriel@@
salt
Dé@@
rain
Could
quantitative
VIP
Geschäftsbedingungen
ende@@
rivers
unterhalten
Kup@@
engagiert
niedriger
orious
Material@@
Que@@
Nä@@
menten
ambience
ML-@@
districts
inal
ş@@
begangen
computer@@
Sep@@
teenth
Richtlinien@@
hops
Med@@
stanz
quer
digten
ны@@
aktivitäten
samer
complimentary
Verhältnisse
Verstärkung
Partei@@
weis
invested
Entstehung
ilt
beat
EMU
tackling
CP
Add
durchgeführten
officer
scienti@@
Überwachungs@@
group@@
vernachlässi@@
Singapore
iser
Ernährung
ook
streit@@
awar@@
Segel@@
idealer
längere
verehrten
beeinträchtigt
harte
vicinity
Key
Berater
accused
activate
leitet
Camp
Ank@@
ш@@
sac@@
MD@@
versetzt
wichti@@
Leidenschaft
chner
Eigentümer
Dienstag
-TV
lief
Marketing@@
ceram@@
abgesch@@
restoration
Befehl
ATION
pren@@
र@@
etric
refurbished
hebt
weitreich@@
aufgehoben
trig@@
Vizepräsident
camping
auswärtige
SV@@
U.@@
Küchen@@
iere
ain@@
mysq@@
kill
consisting
lli@@
Marktwirtschaft
toi@@
ment-@@
lending
rows
schaden
Geschenk
isiert
is-@@
tening
gelang
Broad@@
shof
Bedingung
murder
ore@@
vermis@@
eness
dot@@
gross@@
suspi@@
programmi@@
Ring
linguistic
aters
MT@@
Implementierung
vorsichtig
tiny
Schre@@
luggage
amtierender
anspruchs@@
porno@@
sämtlichen
jahres@@
effektiver
Kernkraft@@
earned
Castell@@
Perspektiven
Diensten
größt@@
Partnerschaften
RAM
-Spe@@
Press@@
wiederhol@@
Wolfgang
ems
etta
Berichterstattern
epide@@
debi@@
Shar@@
ungarischen
häusern
äußerster
pend@@
excess
ò
esslich
durchsetzen
stabilität
Hyper@@
photo@@
Internetseite
Four@@
verhältnisse
erober@@
zon
ROM
inia
air-conditioned
waves
Komplettpreise
schneiden
bezahl@@
Gate
striking
bricht
Schwan@@
Italien@@
sharp
bewertung
verhandeln
Harbour
Chicago
dn@@
wäs@@
Hist@@
iken
Fleisch@@
short@@
maker
degra@@
inser@@
Rather
Flug
Profi@@
revenues
wissenschaften
ambitions
glück@@
bedingt
Tunisia
achte
wirkung
aufwand
founder
adv@@
Fund@@
führender
schnitte
bir@@
Kreis
Cour@@
upgra@@
knowing
demanded
configure
vermu@@
lager
lay@@
Grafiken
Passagi@@
Wör@@
beseitigt
Gäste@@
aket
isolation
lück@@
zahlreicher
unterliegt
dive
fet@@
tagon@@
TEN@@
befürworte
Toi@@
Quoten
Swimmingpool
friedlichen
DVDs
Fili@@
competitors
tab
alties
commission
Schmu@@
orn
vement
projekten
contributes
ernden
Slowenien
ausgelegt
villas
geho@@
Vorsitzende
hausen
Initiativ@@
drück@@
clin@@
Thermal@@
strive
schlage
mond
Bosnien
dging
Luxus@@
Lev@@
Fragestunde
profiles
ation-@@
magnetic
Abu
excee@@
user-@@
dus
Mid@@
abzielen
verwand@@
deriv@@
Variante
ware-@@
harm@@
stärkeren
cycling
aufeinander
Jugoslawien
gleicher
Gelände
Junior
arrested
Slo@@
Uhr@@
Arm@@
Stahl
Koordination
Marine
gefasst
colonial
Präsidentschafts@@
PX@@
gebrochen
Ausgang
Wärme@@
alive
inj@@
motivated
officers
mitzu@@
Zugleich
überlegen
carrier
Magic
17.@@
teria
schlechter
Ernst
einzigartig
differently
gebilligt
Aktiv@@
errichten
rescue
amerikanischer
ss-@@
charman@@
baro@@
Ras@@
tedly
diensten
Kohärenz
Aktions@@
Himm@@
part-session
Feuer
employee
hosting
fai@@
ide
Whirlpool
Deut@@
1981
emotional
pact
jähriger
cca
clearer
sweet
freiem
straßen
Ze@@
niedrig
Freizei@@
Kamp@@
duction
Beendigung
Ernährungs@@
scho@@
lifestyle
warranty
EU-Ebene
acher
ne-@@
nick@@
rachte
Annual
inspiration
seminar
Skla@@
congratulations
Luftfahrt@@
Freih@@
discrimin@@
&apos;d
Hop@@
Textes
practic@@
zusammenzuarbeiten
rasche
destabili@@
Aufwand
gter
modest
Zahlreiche
unkte
kin
eira
verbrau@@
Wiki@@
Mount
Ankündigung
databases
nowadays
schnelles
Verbrech@@
Isch@@
sendet
Reb@@
lows
dogs
Hierbei
analo@@
brutal
regelmäßigen
pré@@
tausende
Dau@@
problemati@@
pis@@
tch
jec@@
stärkt
owing
Bosni@@
Wetter@@
Kali@@
Engine
CAN@@
partially
Korrek@@
capability
Tipps
insu@@
Famili@@
Juli@@
distribut@@
differ@@
Kredite
circuit
materialien
allen@@
Caribbean
Ero@@
ICH@@
strö@@
Bali
Verein
bestimmung
extern@@
196
Minimum
lower@@
startet
Gesetzes
permits
ule
lands@@
Grande
Europä@@
personenbezogenen
usses
Gew@@
E-Mails
railways
anded
bears
vul@@
verleiht
Beobachter
Migrations@@
Fut@@
PRO
Residen@@
distinguished
ttes
notification
stom@@
currencies
ultra@@
malerischen
Charak@@
Isol@@
Camping
wofür
Opfern
16th
talent
Banken@@
designers
brother
diesmal
Gegenstände
formula
Spuren
ovo
schön@@
Einheiten
gelöscht
Loc@@
Klaus
schiff
exploit
kontroll@@
Besonderheiten
Thai
abkommens
ardi@@
finanziell
einzurichten
Blick@@
ae
round@@
schaftlichen
neueste
Palästina
ensystem
han
belegt
Ruh@@
Head@@
Hur@@
vielfalt
deny
irgendeiner
Oslo
portugiesischen
sim@@
Theater@@
tzei@@
Hz
bew@@
query
Ereignissen
perf@@
besticht
versuche
trademark
veranstaltungen
Vergleich@@
bö@@
Architekten
streichen
agieren
Produk@@
obtaining
hs
gäbe
beliebten
Granada
palace
у
glücklich
render
Eintritt
authorisation
regen
tight
Aussichten
vielfältige
four-@@
roles
eingereichten
open@@
simil@@
Dich
elabor@@
Portu@@
einzelstaatlichen
Auseinandersetzung
emble
Ton
HS
asks
comforts
electronics
removing
trock@@
nördlichen
Queen
aca
clou@@
transmitted
besetzt
faßt
appreciation
Demon@@
explicit
intensiven
deta@@
biologischen
nas@@
sitzung
män@@
erieren
embar@@
1973
avy
Infe@@
2014
inequality
Retur@@
Rechnung@@
entstand@@
auszuüben
independently
Yor@@
panels
sinn
zent
fits
Continu@@
Elementen
gerei@@
begrenzten
fruits
ffene
Rental
Mehrwertsteuer
effektiven
alling
Meer@@
Euros
europä@@
yl
Schwimm@@
Gelegenheiten
Prac@@
authentic@@
ber-@@
Deine
gehörigkeit
vention@@
Reihenfolge
encounter
OG@@
gerechten
verstoßen
rice
Verzögerungen
assessments
festivals
mailing
igkeiten
Stadtteil
datum
align@@
plugin
Benjamin
Wachstumsp@@
1983
stakeholders
zerstören
stunden
Future
grave
Zins@@
Fehlen
EX
Bildschir@@
Zinsen
Nie@@
boarding
harv@@
check@@
einmalige
rez
atur
use@@
Vorbereitungen
translate
konstruktiven
schwerer
Entertainment
you@@
3-star
kanz@@
Technologi@@
fossi@@
acking
Cube
220
cultiv@@
safely
mounted
Zut@@
cat
Kommissare
woods
Grö@@
verankert
tensions
Verzögerung
Clo@@
gathered
struck
mengen
Eintrag
shr@@
wire
repa@@
-System
CO2-@@
ichtet
perman@@
Pad@@
Kanal
gear
jer@@
embran@@
bey
gesunde
nützliche
chal@@
ocean
Top-@@
Soli@@
laboratory
attri@@
atories
investigations
Datenbanken
ug@@
infra@@
berg@@
Sorgfalt
Anders
Guar@@
gericht
0.00
vy
Bür@@
scenes
anxi@@
rative
unk@@
press@@
Frage@@
investing
Ess@@
sé@@
geschwindigkeit
hectares
Juden
schlimmer
aufrechterhalten
Entschließungen
Moldova
Listen
üben
accountability
weren
capacities
utility
Flotte
Empfän@@
verbesser@@
endete
tournament
schulden
Untersuchungs@@
Flughaf@@
170
Ord@@
tron@@
awards
Awards
warmen
müsse
menü
witness
Vogel@@
zukünftig
bestä@@
1960
leidung
Summer
infec@@
aterie
stabile
orient@@
Merkel
featured
ignorieren
2000-@@
recover
ynn
anbietet
Freien
mid
ermitteln
Benach@@
onischen
conscious
raff@@
observations
classi@@
Än@@
PC-@@
verfüg@@
ess-@@
schaf@@
atz@@
Henry
sser
Dy@@
Monta@@
spr@@
fortable
stringent
dä@@
breites
ellem
Blin@@
Gemeinsam
boundaries
scenario
auseinander
intim@@
zumal
Legitimität
DEN
ouring
climbing
Job
extends
kilometers
Selb@@
exquisite
Eigentums@@
zustand
Theatre
türkische
cinema
seekers
towels
Mountains
klares
Beweise
flüge
Steu@@
Festi@@
inary
Between
kenntnisse
blau@@
Impulse
HR
it-@@
Genf
distribute
Kompromis@@
shoes
zauber@@
sexuelle
verliert
enrich@@
junger
Aufruf
gerichteten
heb@@
erw@@
hide
allo@@
verständ@@
griechische
Bremen
krie@@
kauf@@
Organen
Algarve
eption
Let@@
verm@@
gele@@
touched
fec@@
preventive
amm
1974
speaks
Relations
finanzieller
Outlook
giert
household
Adriatic
NG@@
Gun@@
pati@@
Begriffe
mos
dago@@
Christen
bat
alia
ologically
esen@@
dentally
Sant@@
Spirit
IK
luck
verhandlungen
Tendenz
titles
bewe@@
host@@
zukunfts@@
TU@@
21.@@
analysiert
appen
bereitzustellen
PPE
firmen
ind@@
Gebrau@@
luxuriöse
Simply
profitable
gl
Kommissionsvorschlag
zin
Konflikts
promotes
cting
Große
größtenteils
wolle
fifteen
studios
Arbeitsweise
wenigsten
reb@@
Fün@@
Spei@@
bedauern
Frattini
lern@@
wedding
sanc@@
DVD-@@
sson
negle@@
Tokyo
Integrität
unmittelbaren
menus
countless
finishing
vie
mari@@
coalition
younger
gewiss
mehrerer
Manchmal
andt
verschieben
Diagno@@
damaging
Sekre@@
Acht
authenti@@
stimulate
verschoben
fabri@@
constraints
ranken
erbar
Geschle@@
genauen
Maj@@
zö@@
supervisory
Reichtum
interessan@@
levard
reser@@
adequately
erlau@@
surplus
ritt
installing
Converter
first-@@
Veranstaltungs@@
Randlage
afterwards
Elektron@@
ec
theast
cha
Tatsachen
Erleben
Partners
mittag
ints
bestellt
Grupp@@
Forest
Mou@@
free-@@
Kluft
trü@@
Effektivität
belgischen
entfer@@
Sax@@
18-@@
Golfplatz
Abgesehen
euro@@
Frieden@@
Trennung
cooling
LT@@
unterstreicht
Folglich
musicians
scra@@
angehören
-in-@@
vorne
Kopie
besides
Prü@@
rift
collections
ATA
Wahrscheinlichkeit
geeign@@
gin
emissionen
jud@@
RT@@
consulted
Aufträge
reicher
Abonn@@
Bran@@
selbe
gebrau@@
zier@@
flotte
angel@@
Out
E-Mail-@@
skosten
weapon
pride
template
divide
Ev@@
starker
Gastfreundschaft
wünschenswert
seaside
ecke
fic
reaches
tico
begreifen
Jews
Rosen@@
thor@@
fälsch@@
Estonia
bia
Kim
aken
16.@@
delayed
gischen
terror
wandern
Män@@
dreams
stitution
temperat@@
Trag@@
Hierzu
joy
vineyards
class@@
landwirtschaftliche
Cross
ulieren
15th
wissenschaft@@
Tap@@
feelings
ie-@@
Holy
summary
Maus@@
bloo@@
umfassendes
washing
sail@@
schuldig
ellen@@
hôtel
verknüpft
Seever@@
Jur@@
Adam
Armuts@@
endung
Argentinien
flan@@
interpreted
Weißbuch
esp@@
asiatischen
bedeutendsten
retro@@
unanimous
Workshops
killing
rägern
hn
nähe
TAC@@
cus@@
qualities
zutiefst
ühle
Energieversorgung
elite
unvergesslichen
Stabilitäts-
Vorbild
fristig
gases
atte
gipfel
ausgestatteten
Blut
argued
ordnen
eux
stattung
reiter@@
ь@@
MAN@@
É@@
dauerhafte
Psych@@
Zur@@
Garda
indigenous
Kunststoff@@
Eurostat
Nationalpark
fang@@
stunde
geschätzt
fat
filters
Mountain@@
coherence
blü@@
Ausgleich
inevitable
gewann
schmerz@@
wus@@
Pie@@
besseres
saison
Teneri@@
repe@@
Unlike
Regarding
großzügi@@
Deli@@
Reak@@
Metho@@
Inneres
geklärt
Days
reib@@
1500
plying
lok@@
Leid
Defizite
UPS
Directors
Muslims
Nuklear@@
ity-@@
Rechtsan@@
parlamentarische
spell
o.@@
Rats@@
17th
boom
NOR@@
dictatorship
luxuri@@
bereitstellen
wechselt
detailli@@
Lav@@
mono@@
Zubehör
opponents
SD
Prix
PN@@
cam
Wechsel
ströme
Mauer
optimalen
Fortschrit@@
furthermore
wurfs
Versuch@@
nachvoll@@
Zwecken
sincerely
rang
Intelli@@
friedliche
Menschenhandel
lische
Prestige
recover@@
latt@@
schau
ebo@@
verbot
Versand
ы
abolition
zugän@@
Rock@@
Jam@@
Fertigung
umgekehrt
bedeutend
Dolmet@@
reconciliation
influ@@
zeitlich
engagement
uliert
más
sieb@@
eligible
Spen@@
Hinsichtlich
Reh@@
Supervisory
Vorwand
reader
gegebenen
korrekte
Jahresbericht
ames
interessen
ees
Business@@
ror@@
ausbildung
neys
tätigkeit
125
albeit
mittlung
disman@@
südlich
ppen@@
blocked
beitreten
Mary
umen@@
gravier@@
dimin@@
justification
geltend
door@@
Tai@@
Oxford
Veget@@
mehrmals
delivering
ALE
geteilt
Ultra@@
sendung
Excel
Spielraum
indispensable
moon
tained
Friedrich
institutionen
Being
veter@@
ermaßen
Rimini
therap@@
realised
Privi@@
Vermeidung
DJ
annt
Korean
lägen
LateRooms
Geschlechter
lüssen
Sty@@
Zäh@@
Klar@@
Provider
Alpha
elegance
veaus
helicop@@
nik
erwar@@
erschienen
Sym@@
außergewöhnliche
separation
Print
leihen
assungs@@
â
Zulassung
Tunesien
krank@@
Funktions@@
lap@@
otel
ertem
essive
anstelle
Fischer@@
lez
müßte
Erreichen
prüfung
Leistungsfähigkeit
gesun@@
Religions@@
umen
conviction
Krieg@@
Clu@@
gefolgt
resistant
Chr.
korrigieren
klausel
suspension
Exhibition
in-depth
Beachten
cz
betrug
gehörte
chemischen
stroll
explanations
Ny@@
Sky
mort@@
Plugin
Zusammenbruch
übrig
Touristen@@
acken
Voraus
stit@@
unverbin@@
teri@@
Territorium
ailed
pipeline
ßte
bereichs
Pfei@@
aders
Cot@@
wunderbare
turn@@
entworfen
bec@@
ignor@@
interfaces
crystal
beha@@
Wurzeln
races
ausgebaut
Schal@@
KOM
bietern
durchgesetzt
ölle
singer
untereinander
Alm@@
strafrech@@
wesens
cements
taten
og
v.@@
ladimir
clarification
Stütz@@
eite
Neuigkeiten
Deluxe
Timor
strategien
Glaub@@
noisy
prompt
frisch@@
loud
recy@@
colon@@
ruled
BAS@@
twelve
arran@@
Univers@@
integr@@
vertei@@
audit
artig
bereitschaft
Interview
chil@@

Love
ahl@@
bub@@
out-@@
servative
Standpunkte
arriving
hung@@
Verona
outer
getestet
erc@@
attempted
marriage
fici@@
complic@@
Architek@@
bark@@
leichten
decoration
на
Photo
Möchten
stischer
complement
genügt
verglichen
mins
mündliche
wuchs
islamischen
liqui@@
Watson
gesorgt
existed
tram
Zugangs
Transa@@
Christdemokraten
veröffentlichten
vorhandene
obo@@
Hav@@
invites
reproduction
Telekommunikations@@
verbindlich
Allow
stün@@
1977
graphical
Refle@@
uten
crow@@
fache
enjoyable
sav@@
Offizi@@
agre@@
beliebt
Karel
emandem
entities
am-@@
single-@@
Komponente
Besichti@@
Dire@@
runden
vorangegangenen
esco
Ganzes
hrt
Frankreichs
Abfälle
contest
Netzes
schulen
alis@@
schwarzen
deeper
gebenden
ger-@@
dauerhaft
weisungen
Petersburg
lichung
abe@@
Shopping
Jes@@
12-@@
inhab@@
Tagungs@@
jung@@
Vorredner
designated
acro@@
att
Wohlbefinden
ktives
undes@@
Argum@@
scep@@
weitergegeben
ital@@
keit
räder
maßgeb@@
FS
calculation
FF@@
somewhere
systematisch
Allgemeine
Berechnung
conditional
await
Hunger
drehen
Kro@@
trail
lawyers
Maison
critic@@
Materials
processor
Video-@@
ssige
zeitraum
endless
vorbe@@
bag@@
smu@@
kurz@@
Leonardo
Spr@@
Electri@@
kör@@
decentrali@@
ually
erschien
cross@@
gemü@@
schle@@
eme@@
mountain@@
wozu
Texas
Laeken
S.A.
belegen
faktor
Ress@@
Geschichten
tchen
zulässig
consist
zwangsläufig
Grundfreiheiten
stieg@@
spezif@@
reinforced
reviewed
Albanien
Ersatz
bann@@
Zielsetzung
massi@@
té
Festung
Ausnahmere@@
lag@@
Ursprungs@@
kamera
Heim@@
passenden
Informationsgesellschaft
anmelden
Zuerst
Präsidium
Anzeichen
lässi@@
aan
Rahmens
event@@
Hilfen
autor@@
character@@
avoiding
Seh@@
sag@@
printer
gültigen
unglaub@@
electro@@
Ernennung
Recy@@
packed
genheit
maß
Simul@@
noti@@
quet
Libyen
fehlende
Elite
prechen
tment
Heb@@
Sli@@
Chaos
leg
Ben
Deutsch@@
five-@@
Azur
ausgewogene
weitem
Schiffs@@
industrielle
4-Sterne-Hotel
Carlos
Fuss
co-operation
anno@@
Buil@@
beträ@@
counting
tick
Foot@@
Jack@@
check-in
Bed@@
Arbeitskräfte
teach
verblei@@
bad@@
ras@@
Consul@@
sozusagen
Freie
hinzuweisen
etten@@
Schlu@@
förmi@@
limitations
Cannes
ferenzen
herunter
expl@@
defizit
Christians
Mailand
admission
geseh@@
libraries
Fertig@@
entiert
fundamentally
remo@@
Sci@@
hairdryer
einzustellen
erinnen
Focus
Menü@@
Zent@@
symbolic
Respon@@
gerin
enda
fif@@
bemerken
Enth@@
Stränden
langjährige
Treiber
aufre@@
Split
2,5
Mühe
unterhalb
Liter@@
15.@@
Erfin@@
extrac@@
ING@@
retirement
qm
Monitoring
Mehrere
globally
Simbabwe
Wahrnehmung
Mugabe
Konzert
Stimmung
fischen
liquid
freundlicher
distan@@
Landschaften
einsei@@
stie@@
Ltd.
autonom@@
porte
Betrugs@@
Kühlschrank
schaff@@
Informations-
rische
000@@
DM@@
Stabili@@
hazardous
wich
brand@@
Progno@@
hunger
Child
diox@@
kommission
USB-@@
treibt
Speicher
panorama
hopefully
Fertigungs@@
erzi@@
Sn@@
SIS
eman@@
Friedrich@@
Dörfer
dun@@
ielle
bürger@@
onte
outlined
lichten
ius
ruption
symbols
Relax
Besteller
bevor@@
stufen
verbieten
Somm@@
lays
cargo
HOTEL
subscription
laying
Train@@
Verbindungs@@
fasst
Gross@@
pe-@@
ask@@
Digit@@
Label
ruppen
Facebook
legendary
Flas@@
inevitably
ausgearbeitet
vessel
iker
Collection
utive
turm
Sämtliche
bikes
Binnenmarkts
ürz@@
eable
ckers
Krä@@
incident
igrant
Basic
Abend@@
stechnologie
religiöse
1950
Rezep@@
anstal@@
mean@@
Gemüse
Devisen@@
detection
voices
vermehr@@
beautifully
ausgedrückt
ians
Feder@@
floo@@
Mitwirkung
oods
ranges
REACH
Solange
Côte
VE
Konflikten
offset
on-line
impetus
abends
year-old
Songs
aggre@@
Wert@@
openly
späten
Walter
Ratspräsidenten
instability
oration
Konzerte
delivers
izes
besagt
shooting
Boli@@
Ärzte
nobyl
Tony
Gleichbehandlung
itz
supplement
Verkehrsmittel
bungs@@
Literatur
cts
advances
energie
Schaf@@
simplified
Pfer@@
fulness
generating
Dubai
spieler
advocate
Wunder
erweiterte
wasn
fertili@@
Much
Applikationen
ress
Dringlichkeit
antiken
fabric
implic@@
intergovernmental
distant
gründet
Ash@@
highway
benachtei@@
wahrnehmen
tauschen
impro@@
que@@
Mittel-
erschein@@
schwedische
tale
Journal
ty-@@
Infos
scop@@
capitalism
prints
passi@@
usi@@
arien
Type
carries
Einladung
geschätz@@
petition
mming
Schri@@
entwickel@@
zio
ouldn
bor
....@@
SSL
inne
entschei@@
dbar
Kommand@@
workforce
anderswo
durchschnittlich
Soci@@
universe
dust
John@@
Kommentar
maintains
dow
großartige
schaftliche
tatsächliche
traditionell
inter-@@
anstreben
änderungs@@
tremendous
müh@@
verbreiten
verwirklicht
Nutzungs@@
Geträn@@
adidas
Vermarktung
Canaria
asi
Commun@@
notic@@
ICE
stating
Save
abgehalten
Schwier@@
xis@@
höh@@
Neu
cycles
strand
pläne
Fis@@
atemberau@@
quer@@
cris@@
Durchschnitt
nnen
heil@@
Later
exceptionally
19.@@
1969
sensitivity
Visual
Unserer
Feri@@
vou@@
Stellenwert
Though
systematically
Parlamenten
infrastructures
Automobilindustrie
Statt
Ps
algorith@@
manip@@
ance-@@
Panel
abili@@
indirekt
ständiges
stir@@
SK@@
höhe
Bestand@@
Review
Substanzen
christ@@
Baroness
twenty-@@
ideological
insight
EGF
Application
ju
abu@@
Beton@@
aktiver
CC@@
prochen
Statistik
reasonably
tana
mixture
deutlicher
mile@@
horses
Auswahl@@
Konkurren@@
brin@@
selecting
Petitions@@
overnight
eingang
worker
fahrzeugen
wickelt
Sensibili@@
robu@@
benötigten
bewirkt
mein@@
Vielmehr
wende
restra@@
vorschlägt
refriger@@
begrenz@@
tritts@@
defiz@@
Teu@@
gezielt
Round
Finanziellen
betreibt
refugee
booth
resumed
Egal
Bier
cost@@
Spanisch
EK@@
privati@@
Hein@@
häufiger
container
Peking
law@@
Mitentscheidungs@@
abuses
Anmerkung
Everest
mits
pop
newest
Gerne
tolle
robots
oxi@@
assign@@
mineral
tracking
Annäherung
Energies@@
aboli@@
gau@@
1990s
Schiffen
Abwicklung
dele@@
Indonesien
cine
Kandi@@
Komple@@
nutri@@
Einblick
donors
vorrangig
Projektes
borro@@
Jahrzehnt
NE
verschwinden
shaushalt
reno@@
IF
Gefän@@
Zellen
lying
TNG
Eurex
Johannesburg
Begegn@@
Verz@@
Lama
tunnel
Berlusconi
verstärkten
flüsse
Hintergrund@@
eingeben
shock
rarely
evo
abzielt
leute
Benutzern
gründlich
Dr@@
adresse
alising
attraction
skill
Viol@@
ktieren
prevents
halts
pig@@
And@@
entity
high-speed
pointing
harten
Zugangs@@
rd
ila
fließen
Anth@@
entrepreneurs
Welthandelsorganisation
Aufrechterhaltung
Zentren
berge
Verantwortungs@@
Clear@@
Nothing
defici@@
herself
Copy@@
disagree
Künstlern
tiefen
tually
einbringen
Gefangenen
struction
Airways
zweimal
erfor@@
Dr
Beobach@@
opera
stehe
Redu@@
PA@@
ingo
Norwegen
proliferation
Wag@@
igte
awa@@
incorrect
wache
integrating
quiries
saubere
yal
sex@@
1.2
aluminium
Direct
hinterlassen
Lanka
befu@@
schieben
rechnung
Channel
Sicherheitsrat
sident
linking
Umstrukturierung
matches
chances
stoppen
Ebenfalls
ów
Bach@@
advised
fähiger
Sofia
büros
coach
Einwände
UNO-@@
kommunistischen
asting
adjustments
threatening
drücke
verbin@@
ausführliche
Barnier
sames
besitz@@
enthal@@
Abweich@@
kapit@@
Kühl@@
Behinderungen
Innsbruck
netze
subjected
personenbezo@@
terraces
anlässlich
allmählich
beantragen
anfangen
Fokus
Tourist
WW@@
chts
TA@@
bekam
klim@@
damaligen
defeat
vereinfacht
layers
beliebtesten
aka
dents
cans
I.@@
laimed
Treibhausgas@@
enswer@@
artier
veröffentlichte
Ansätze
decrease
Vorstand
buff@@
Arbeitslosen@@
Eleganz
ärm@@
Direkt
TEC@@
RE
silent
frische
beding@@
jn
Zeitungen
Pilot@@
latein@@
parall@@
socially
trieb
genz
Sän@@
Minderheiten@@
schü@@
Sicherheits-
Suchen
capit@@
breeding
Stefan
rer
MIN@@
mache
provi@@
encomp@@
beantragt
kämpft
Environmental
Verpackung
Mechan@@
Räumen
territori@@
gradual
schaftlich
preisen
Flach@@
ansä@@
verteilen
brie@@
Auth@@
wishing
Basis@@
exam@@
Gur@@
aro
athon
Kost@@
judges
annually
ventionen
Florida
befür@@
mic
setzten
Fristen
benutzer@@
on-site
last@@
Geschen@@
ismo
Vall@@
persönlicher
cover@@
clinical
His@@
ह@@
Gefan@@
ktiert
Johannes
gical
ppy
Nahrungsmittel
walt
giant
oom
ark
PPE-DE-Fraktion
gleichzei@@
reveal
corri@@
ка@@
Large
arises
dänischen
inspiri@@
Millenni@@
Griff
С
beeinträchtigen
enco@@
tten@@
Grafik@@
.....
holung
Kosme@@
Indikatoren
Geo@@
placement
abstained
Doppelbett
Vec@@
Entschei@@
pflan@@
aspe@@
Hun@@
Shop@@
furnishings
vente
terly
preises
OL
interference
disciplinary
Kompromisse
gelände
Chechnya
Nobel
Dör@@
moralische
dio
BIL@@
tling
Sofern
Frontex
Bern
technically
Reden
healing
Albert
Downlo@@
Klick
auftritt
Aller@@
gerer
vernünftigen
ppt
aku@@
ù
retri@@
igu@@
Epo@@
banken
Gesetzen
ellers
jor@@
keiten
Entfer@@
Nachbarschaftspolitik
akten
leiste
Gletsch@@
deplo@@
bicycle
stärke
ummer
scape
op-@@
Demokratien
stahl
incomes
partement
kompetenz
emis@@
das@@
adverse
therapeu@@
supran@@
männ@@
Nag@@
chtige
Teilnehmern
Infrastrukturen
ż@@
ли@@
Bluetooth
Foren
Nachteil
ot-@@
Operationen
Long
Som@@
imperative
packen
aal
büh@@
iz
customized
licensed
strecke
Konstru@@
criminals
authori@@
globe
a.m
kr@@
big@@
installi@@
zuverlässige
Sett@@
Treib@@
Bangkok
correspon@@
gesetzlich
Internetseiten
brun@@
Oracle
Euror@@
Mozilla
aktiv@@
Repar@@
Kil@@
affir@@
Alkohol
Especially
beam@@
shell
distributors
crats
Geburt
dringen
Klim@@
anzugehen
gather
nachzudenken
befreien
Generalsekretär
asts
Schlo@@
Spielern
beside
Kondi@@
touristischen
veränder@@
vorhaben
mild
Untern@@
Railway
ckte
frühere
städtischen
sevent@@
ECHO
loan
figh@@
assador
Busse
G20
utter
painted
compan@@
grid
etings
complaint
Sequ@@
Gleichheit
koordinieren
Balance
beweist
heres
tta
Pharma@@
Unless
Forst@@
knowled@@
Athens
Währungen
Finanz-
meint
Souven@@
repression
carriers
umpen
accommodations
Diktatur
Säule
Spra@@
Erika
educ@@
gesetzliche
volumen
In-@@
refra@@
thaf@@
vide@@
hütung
Gemü@@
reiten
terrain
attempting
Little
Sortiment
wy@@
Augenmerk
Any@@
kü@@
Block
Romanian
criterion
unzureich@@
schreck@@
ASA
origins
hearts
gebor@@
grundlage
couples
frau
civilians
maßgeschnei@@
letztes
energie@@
NOT
18.@@
Signale
samples
höchst@@
Upon
revolutionary
stra
14.@@
metro@@
eron
unkt
bün@@
medizin@@
optimieren
yle
zeug@@
Aufsicht
resolving
Stil@@
bahnhof
City@@
feier@@
Verbrauch
boys
luft@@
präz@@
Statut
Statute
Lob@@
σ@@
Criminal
überflü@@
Vulkan@@
vorausgesetzt
discretion
vigil@@
Anreiz
Minder@@
ßes
Eck@@
Duis@@
usa
länge
nia
Pom@@
Harry
amin
surgery
modelle
schien
Exek@@
keits@@
unvermei@@
Bün@@
compens@@
etzt
erreichten
tible
immerhin
Übertrag@@
yp
Lud@@
harmonised
ungsh@@
gelag@@
bedient
exclude
bemerkt
mount
Orientierung
ALL
Fest
Redebei@@
Punta
Users
Termine
regelmäßige
CT@@
abteilung
Kub@@
mangelnde
Publik@@
Etik@@
Sicht@@
wachen
effizi@@
Works
tragenen
träglich
Inflations@@
fikationen
geordneten
Jahrhunderte
chamber
Local
Kari@@
familie
Swoboda
Bruder
kapital
episode
HI@@
communist
regu@@
determining
besichtigen
ausgezeichn@@
Proc@@
ova
attach
passive
rigorous
Entschädigung
ausgeübt
sincere
sus@@
spür@@
totalit@@
Religi@@
öhnung
nearest
Smart
queries
Säu@@
nutzung
Unternehmer@@
Kleidung
personality
Gesamtheit
supporters
Persön@@
Written
upload
Officer
spru@@
Song
schaft@@
Linux-@@
vacuum
dauerhaften
vorbereiten
Konver@@
gun@@
beruf@@
perception
einlad@@
autonomous
SM
promp@@
figu@@
Sternen@@
hinzuzufügen
äler
qu
deter
ft-@@
coins
intuitive
gig
schwerwie@@
zungen
Gesetz@@
uty
lins
Dom
end-@@
was@@
Lust
Transpar@@
shofs
automatischen
solu@@
Passagiere
Solidaritäts@@
toll
distinct
democracies
Einfluß
Auftraggeber
Ramblas
rts
lichte
tled
bollah
Chat
berühmt
examining
Solidarity
Früchte
locally
abgestimm@@
margin
Dafürhalten
schicht
ernannt
accessed
142
RS
tera
ferry
engagieren
Messenger
downloads
Terrace
Solar
beschä@@
excuse
Paradies
comfortably
brachten
Syri@@
Autonomie
bezogenen
element@@
orange
Vig@@
verschul@@
thwest
Insofern
starb
zel
EST@@
herein
-European
tent
3.5
einsetzt
boar@@
ffe@@
englische
Nichtregierungsorganisationen
reciproc@@
acht@@
ño
Vergü@@
dramati@@
rounds
aki
tras
cigare@@
pillars
verträge
Jack
herausra@@
circum@@
guitar
Fres@@
Meister
nische
Aufgaben@@
ttern
genetically
för@@
restrictive
128
pedia
artigen
indirectly
gie
investitionen
ceremony
ön
NT
dryer
erzählt
Mira@@
Gab@@
Einbindung
begab
doz@@
fungs@@
modular
Mé@@
ometer
renovierte
Crus@@
tom
zunehmen@@
bekräftigen
Völkern
erkennbar
clas@@
chip
Möbel
Vot@@
envisaged
ude
Newspapers
cere@@
strom
perfe@@
Bulgarian
WHO
findung
gesendet
plu@@
OP@@
römischen
appearing
Nachbarschaft
audiovisu@@
Gä@@
nahen
invoice
lifts
embry@@
instant
Cru@@
Studies
XX@@
beratung
has@@
Naturkatastrophen
thou@@
echter
Quartal
divisions
Banglades@@
theoretical
Erneuerung
Maßstab
andau@@
Zeile
Gläub@@
angeführt
MM@@
reactions
Anpassungen
pine
strikes
AST@@
IGC
SOL@@
gen-@@
pf
mord@@
ás
zugreifen
ziehung
quick@@
Zealand
taire
Ganze
geholt
oph@@
procedural
identifizieren
Hongkong
ò@@
imagin@@
yield
Mitarbeiter@@
protective
delle
dis
koordiniert
tionelle
tox@@
corporations
Dür@@
dynamischen
off-@@
scrutiny
cular
Musiker
anci@@
Vegas
Campingplatz
formerly
urs@@
ños
g.
quo
Klo@@
Minist@@
inson
literally
vorzubereiten
Lobby@@
workplace
arme
Dienstes
protests
drit@@
text@@
seitdem
Quer@@
securing
bücher
hosti@@
Rate
keyboard
ition
segments
billigen
photograph@@
nette
drän@@
Megapi@@
Protok@@
Galax@@
cup
german
Beförderung
Arri@@
zusammenzu@@
terra@@
enberg
headed
verkauf@@
patch
behindert
Freedom
steigert
Ja@@
folk
dierung
sowje@@
Sehen
Tie@@
fortzusetzen
zir@@
Turk@@
Gefähr@@
cils
inierten
nai@@
CIA
Downloads
Controller
Loch
organs
World@@
Netzwerke
convincing
Umgeb@@
kriti@@
Schottland
Kei@@
Laman@@
echt
wid@@
Spann@@
prejudi@@
Willi@@
kov@@
fehler
bewundern
Preis-Leistungs@@
penet@@
disastrous
aving
visas
स@@
webe
Gültigkeit
genutz@@
confi@@
schwäch@@
trages
buttons
downlo@@
legisl@@
Erstellen
PSE-Fraktion
erfassen
ar-@@
compromises
Kameras
Angeboten
Brand
congratulating
DNA
äußer@@
HA@@
latt
Rechtssicherheit
validity
ORE
concludes
jed@@
enhancing
interventions
Commander
ageing
foster
static
Disabled
cathedral
Ansprechpartner
indire@@
hunting
altitude
ý@@
beglückwünsche
Keram@@
Stellungnahmen
endo@@
schaftlicher
uner
execute
erschüt@@
investig@@
wet@@
formally
Night
Lauf
Memory
geschmackvoll
lassen@@
arena
credits
Schnit@@
gster
architekt@@
decor
länen
hir
ländischen
ologen
sacri@@
Kolle@@
py@@
geschlossene
portion
Beschaff@@
Cardassi@@
32@@
Andro@@
raums
Kompromiss@@
vielfach
dev
Resultat
Rohstoff@@
WiFi
formali@@
Chancellor
pedestrian
monopoly
uniqu@@
1972
mitglied
Ungleichheit
Direktor
accommod@@
routine
Hear@@
SPA
note@@
categ@@
Production
Quadrat@@
festhalten
zügen
Hoffnungen
exe
variables
double-@@
Gibraltar
Whilst
productions
Heu@@
ave
geschütz@@
modus
unum@@
sorts
Solarium
ersuchen
Herstellern
dered
abzulehnen
blicke
T.
pushed
Kloster
wertvollen
1.1
zivilen
Breite
admitted
fier
Haushaltsjahr
zza
stad@@
Band@@
Mensch@@
cotton
Modell@@
Vorbe@@
Looking
Mitgliedsstaaten
onisten
ventions@@
strahlung
Demokratisierung
erfahrenen
FS@@
Frau@@
Enter
ever-@@
6th
letter@@
bedürfen
Erschein@@
insert
Inanspruchnahme
fed
partner@@
berau@@
preference
consolidated
Begeisterung
adet
Schalt@@
missi@@
depic@@
ehl
mobilen
Vorbehalte
muslim@@
tice
esk@@
galleries
Schauspiel@@
cling
Obst
vian
Petitions
Latvia
certificates
behei@@
Angebot@@
auto
perceived
Folge@@
Ostsee
unilateral
Kalender
dichte
gebnisse
tat@@
neo-@@
Komplexität
anti
5000
anch@@
iga
gesenkt
Oc@@
Formel
exclu@@
overwhelming
morali@@
Piet@@
22@@
Navigation
apel
Domain
train@@
urop@@
Entschließungsanträge
Milch
tonight
Flüchtlings@@
Volkswagen
versi@@
ALL@@
fangs@@
p.m
hoff@@
Rücken
Gegebenheiten
bör@@
intimate
abandon
verschlüssel@@
Os@@
verify
Again
arly
Ganzen
optionen
innocent
erkenn@@
Gegenwärtig
enzi@@
carri@@
Cash
roten
grenzt
wanting
philosoph@@
doppel@@
gerte
rungen
Catholic
diversen
Trav@@
oll
Erkrankungen
ro-@@
Italiens
Sozialpolitik
steigende
Jobs
Canal
nisch
exi@@
rounded
lity
worried
hip
außergewöhnlichen
Event@@
preservation
dramatically
Zentralbanken
modernsten
anzen
Fahrzeugen
windigkeits@@
inviting
го
Mario
stabilen
aran
serie
Dutz@@
Ukrainian
sche@@
lingu@@
öst@@
vities
Später
führend
ounced
riert
non-governmental
burning
Learn
wished
norm@@
Beauty
sib@@
beleb@@
sonni@@
tschechischen
gins
bearbeitung
alternativen
schätzt
Democracy
bildungen
agra@@
Bundesrepublik
reti@@
niedrige
aufweist
attraktive
assessed
Schluß
vene@@
stimulus
dürften
schätzung
sequence
Zap@@
Klang@@
erung@@
tles
Festivals
kopieren
listet
ausmachen
chno@@
Höhepunkt
arest
refusal
transatlantischen
geschützten
transported
Kanäle
läufi@@
grundlegend
Hoheits@@
standard@@
Streitkräfte
packt
westliche
serklärung
uno
Gene@@
Gebi@@
Anyone
Erwerb
sympathy
Redezeit
gemeinschaftliche
alog
gehand@@
Son
Pots@@
fundi@@
Potential
dicht
dek@@
DS9
immen@@
Persönlichkeiten
ausgewählte
reiches
baute
chips
tank
safeguarding
tery
Fäl@@
studying
Nichts
geräumigen
Forscher
Konsumenten
unternehmer@@
mensch@@
dynamische
unanimity
Störungen
Gesundheitswesen
ästhe@@
Smart@@
surfaces
09.@@
annehmbar
minibar
Ausstellungs@@
Creative
ät@@
Kampf@@
otive
deployment
readers
scripts
SQL-@@
stairs
unweit
Partnerschafts@@
Entwicklungspolitik
istan
unterstrichen
skri@@
laufende
Veter@@
Neither
Zah@@
Canadian
Against
ignano
dahingehend
Koso@@
Depending
Raf@@
sachen
mitt@@
rahmens
jan@@
Biom@@
far-reaching
Höhen@@
accompanying
gmati@@
verlust
UK@@
DO
lieferung
energies
Richtigkeit
thinks
missible
ake
Zutaten
Häufi@@
benachrichtigt
wiederhole
buyer
exploited
zügi@@
verlängert
ank@@
Straß@@
statute
gründe
verbindliche
Linken
NT@@
20.@@
basierend
profession
Gesetzgebungs@@
council
bugs
24.@@
witn@@
beobachtet
gress
Flüchtlingen
enten@@
estro
Help
RF@@
unified
friend@@
Zukunfts@@
vertical
Kapitalismus
amtierende
bekämpft
Jacuzzi
artic@@
Besetzung
night@@
lichere
vibrant
ply
consultations
tzen
IND
österreichische
ρ@@
50-@@
escal@@
nings
Nachfolger
Krimin@@
vorzuschlagen
hof@@
Außengrenzen
ité
Pent@@
Wu@@
Political
ausgestellt
Zivilisation
ache
abzuschließen
paint
fehl
Kä@@
Entdeckung
zn@@
Anzeigen
Kongress@@
GM
proves
proportionate
A5-00@@
Kernenergie
Stim@@
dion
Manchester
nightlife
dimension@@
Flüssi@@
classified
configured
diesel
tori@@
direkter
anism
serial
uk
er-
baths
Statisti@@
Germans
Zie@@
Direk@@
ruf@@
aiming
eig@@
Nit@@
außer@@
endeavour
encing
milli@@
solidar@@
Photoshop
gemütlich
begriffen
bets
Kindes
voranzutreiben
glas
jenige
aver@@
wisdom
sache
Kurs@@
fragile
Publikationen
ausgebil@@
Recently
Ferr@@
endorsed
Blizzard
Beitrittsverhandlungen
gul@@
teure
Bavaria
fünfzehn
Meinungs@@
Kast@@
tei
fläch@@
Starfleet
ego
gresses
Hunderte
ox@@
amtierenden
austerity
Dich@@
spark@@
gesu@@
Blau@@
lifting
Porsche
bury
versetzen
Gewer@@
Buchstaben
Hollywood
vorberei@@
Hans@@
EZ@@
costly
Geschäftsführer
worauf
ammern
Interpretation
landing
beachtet
smallest
Domin@@
spiri@@
memories
verweist
anyway
TW@@
े
vollkomm@@
mittel-
Ferienhaus
drew
safer
wunderbaren
pull
produc@@
documented
abgeschafft
probe
wash@@
Lady
Along
deciding
zufriedenstell@@
pricing
Zinssätze
Lissabon-@@
Landwirten
umping
perfec@@
Phan@@
micro-@@
zeile
Bewegungs@@
gescho@@
Argent@@
expliz@@
mac@@
Nul@@
inet
zion@@
legislativen
Gent@@
Norm
Budd@@
tiers
berry
chart
guest@@
conce@@
stitu@@
1980s
Back
winkel
pending
limiting
ateway
bewahr@@
gewöhnliche
dorthin
colo@@
medic@@
confirms
author@@
bottle
anne@@
Autorität
popularity
Glücks@@
Pay@@
Balkan@@
Sw@@
teres
broadcast
elung
rent@@
Beispielsweise
Word@@
lush
Weiter
Sydney
Öster@@
beherbergt
Impf@@
Congo
Rohr@@
oberfläche
Pakist@@
~
Magazine
freiwillig
haz@@
Imple@@
7th
KE@@
Zucker
Alex@@
Valu@@
Strafgericht@@
behold
abgel@@
brilliant
demonstrations
int@@
neut@@
Gutes
Medina
Moldau
Durchführungs@@
diam@@
ardo
vereinbaren
developer
gefahren
ergy
Dal@@
Toleranz
relie@@
spac@@
Zentrums
detention
schwe@@
writers
Colombia
estic
gemon@@
transfer@@
Standorten
Immunität
Still
racht
halben
Speed
Cul@@
ausgeliefert
gigan@@
improves
Stars
indischen
rumän@@
massiven
Harmon@@
tseite
besteh@@
six@@
acu@@
ront
bereitgestellten
Kamer@@
Alb@@
trans-European
verschärft
punishment
modification
Investi@@
english
omo
750
Produc@@
Wanderungen
bestraft
Voraus@@
Artikeln
gessen
ext
steine
aktionen
torial
counted
lagen@@
cho
blockiert
path@@
Dunk@@
Artikels
ont@@
Kanz@@
Etage
princip@@
adjacent
abschluss
admire
Hilton
textiles
indications
wertet
dead@@
Infrastruktur@@
begrenzen
abschließen
praise
ausgenommen
Clients
Akademie
gebucht
geographi@@
forderungen
versprochen
Tastat@@
festgehalten
grafischen
gui@@
markiert
Rollen
deadlines
bedauer@@
foo@@
об@@
transp@@
adi
emphasize
Diejenigen
Zustellbetten
Unterricht
Wandern
ا@@
fizierten
Giovanni
ruins
correction
ordering
stufe
ISA
einzuleiten
Prince
thereof
portable
classification
irgendeine
SIM@@
positives
Seattle
Turni@@
beeindruck@@
Kreatur
snacks
Universi@@
listing
Alkohol@@
horn
Rose
Ära
faktoren
hec@@
Ziels
obstacle
Bolkestein
counter-@@
europas
4-0@@
diente
seller
Anwendungsbereich
stechnologien
angemessener
sweise
essor
Konvents
BB@@
introduces
jar@@
Königreichs
Gepäck
verlu@@
geisti@@
responding
gemachten
situationen
lend
Beträge
road@@
Down@@
Verpackungs@@
Olympischen
R.
settle
elas@@
legend@@
critique
ermittelt
cco
noble
verordnung
Aufklärung
inwieweit
Windows-@@
iranischen
schwach
Palast
posing
23.@@
trials
kunft@@
BE
Verwen@@
there@@
Eas@@
alpha@@
aufhören
gency
rear
construct
Twitter
visibility
sentation
guilty
standardis@@
kreative
scri@@
ACE
vereinbarung
Monaco
ierter
limitation
definitions
Zuliefer@@
surance
ausgeben
Phil@@
Akzeptanz
bestanden
anto
zte
sends
advisory
anspruchsvolle
größ@@
gratuliere
honest@@
configu@@
geschnitten
tanks
KL@@
Gewährung
Datent@@
ergi@@
herrschenden
dish
loads
Benz@@
38@@
Guatemala
matic
Gegenden
Wissenschaft@@
ystems
cream
sämtlicher
tout
europa@@
wis
ietet
Weltkrieg@@
immunity
Unterstütz@@
Strecken
kunfts@@
rors
Gedanke
übertrag@@
audiovisual
Div@@
witnessed
ausreichen
market@@
künften
lun@@
Werken
meaningful
volumes
Assozi@@
hony
delegations
wirtschaf@@
Cards
rump@@
Freizeit
Geldpolitik
profitiert
bewegungen
annten
Virtual
bewäl@@
traditionally
Scandin@@
abhängen
zenten
2.2
tasty
anton
Nap@@
commands
completing
subjec@@
Fau@@
ukra@@
Gift
morgens
Club@@
multilateralen
paragraphs
diet
Gleichwohl
Lizenzen
durchschnittliche
azione
Archit@@
Organis@@
rums
gefangen
sprin@@
distinguish
rachten
region@@
courtyard
ausgeprä@@
Eurocopter
ao@@
aments
Bedürf@@
Lieblings@@
Rechen@@
oi
attraktiven
diesbezüglichen
Rica
Szene
Aufnahme@@
complementary
stuhl
Charakter@@
Hydro@@
signifikan@@
identifying
pflegen
ausgerüstet
schlimmsten
psychological
advan@@
Afrikas
wandeln
Inzwischen
Priv@@
apped
Viel
Bä@@
boutique
Schließung
sozial
painful
kümmert
modernisation
medicinal
gasse
controll@@
tariff
Präsent@@
Guinea
endeav@@
Agri@@
trinken
kapazität
henden
deckung
Bestimm@@
Ple@@
rh@@
unmittelbare
Kling@@
sy
insur@@
transpar@@
kommunizieren
Therapie
ART
bund@@
illness
salle
Hindernis
ticul@@
Europäisches
bunal
FREE
Major
Depression
CO2-Emissionen
Fusion
dark@@
erho@@
fulfil@@
Pres@@
Promenade
Nas@@
worlds
screen@@
Trainings@@
serb@@
Etagen
neutrali@@
eive
omas
Gehir@@
Sammel@@
remedy
reluc@@
mare
unic@@
konkre@@
†
westen
igration
invasion
Romanti@@
Imperi@@
short-@@
disch@@
frames
optimiert
Masse
Vorsicht
anwendungen
ausgewogen
Clau@@
legacy
Oper
mood
consi@@
Schwerpunkte
virtuellen
न@@
Bedrohungen
Tagungen
omen
dop@@
periodi@@
Fülle
Auslands@@
einrichtung
tendency
chair@@
mär@@
quoten
gle
protot@@
inland
diplomatischen
Images
Zwischenzeit
Acti@@
Sahara
Nutzern
opol@@
Canary
ehr
anzusehen
Daraus
FP@@
wehr
Sustain@@
modifications
astronom@@
farm@@
Price
intelligente
folgte
siedlung
Übermittlung
spreading
toren
hair@@
Monum@@
vri@@
irrespective
wurf
GEN
timm@@
lv@@
Expan@@
Mathemati@@
Zeitalter
intent
Verhinderung
Designs
statt@@
priced
efs
baggage
Europe@@
Shutt@@
Updat@@
vergleichbar
Delta
terie
Americ@@
liv@@
definitive
eventuelle
sele@@
Jahreszeit
reihe
desc@@
wheels
fabulous
Cruz
Visum@@
ried
sleeping
repar@@
197@@
ā@@
Warsaw
Whatever
assen@@
fassten
distinctive
Turm
FO@@
problematic
favor
dioxide
Monats
10.000
Crist@@
betreut
bekanntlich
consolidate
Trä@@
mittelalterlichen
Benutzern@@
laufend
suits
smoke
exotic
Kyoto-@@
fän@@
en-suite
stants
très
Elektriz@@
Katastrophen@@
Heiz@@
Auflagen
dle
samt
Las@@
IVE
FT
ausgehend
druckt
ausdrück@@
Meinungsäußerung
reservieren
fasc@@
iell
Schritten
wirksamer
geräumige
Championship
tum@@
prerequisite
Schwach@@
agu@@
opping
Folgendes
seas
stent
Kriterium
Multi-@@
Endes
Darauf
undi
zurückkommen
Schätzungen
compet@@
Fam@@
Oliver
regelungen
anien
Dry
Chris
slide
wirksam@@
setzungs@@
Spiels
Davon
schriftlichen
herrschaft
coastline
Ansprüchen
Mitglie@@
gerlich
gambling
stream@@
birthday
Malaga
blocking
Befu@@
abzugeben
Bestrebungen
uta
weal@@
S-B@@
recru@@
stas@@
Durchschnit@@
pflanzen
Scrip@@
Beleu@@
yiel@@
Holding
gezahlt
affen
wholes@@
Johann
af
evaluated
geschenkt
cattle
Sitzungsperiode
unglaublich
administrator
Protot@@
Vertrieb@@
kontra@@
aboard
ultra-@@
Trin@@
lling
Sozialisten
tied
stück@@
Kommunikation@@
Folter
gestrichen
Tuscany
ICH
Zeitschrift
Jordan
verhandelt
stically
Annex
Dienststellen
kat
sensi@@
reimbur@@
Kok@@
disappear
lings
beginn
scheinbar
sere
Verbin@@
casting
Hob@@
24-hour
disabilities
doc@@
μ@@
Ticket@@
erholen
ith
Erdbeben
не@@
defin@@
persu@@
Herzlich
Lange
Applic@@
dität
Subje@@
Anschließend
verwandeln
jazz
pushing
Cohesion
aufrufen
dairy
Formate
selts@@
Ih@@
uit@@
protects
UP@@
broadcasting
Active
clauses
Meas@@
concep@@
-Sterne-@@
sth@@
genommenen
Check-@@
apar@@
home@@
veranstaltet
tiker
Attra@@
ole@@
Behandlungen
etto
Zyper@@
emit@@
Pfad
reaffir@@
aggressi@@
Genauigkeit
pets
Chinesen
merken
Hotelzimmer
escap@@
zusammengestellt
Haltestelle
dereg@@
Posselt
detect
ons@@
Ungleichheiten
Psy@@
Pazi@@
Konzern
Algeria
effizienter@@
betragen
viewer
Wäscheservice
Lee
perfekten
mediterran@@
ehren
Häusern
contam@@
Temperatur@@
Princ@@
Überleben
Secure
themen
Bürgerrechte
Shuttle
Hochschulen
Nachteile
conducting
damp@@
flora
draws
personen
bestätigung
Allein
oasis
contro@@
spam
aker
Comfort
Files
aba
Flächen
RA
ane@@
problemen
erweise
linder
Brown
ansprüche
gewöhnlichen
privater
danger@@
Nordkorea
Erfassung
Tier
nav@@
erzeugung
sichten
möglicher
kum@@
wild@@
vermieten
Blä@@
retained
х@@
beunruhi@@
leuten
Blei@@
verdanken
ggen@@
zweit@@
Zertifizierung
in-house
1971
onna
grafische
rieben
Defizit
hygiene
card@@
metals
jemanden
temporarily
Schlußfolgerungen
Temp@@
enswerten
Räumlichkeiten
Frühstücks@@
π@@
renewal
Zigare@@
gebrachten
gelan@@
Additional
Fan
south-@@
pots
tiveness
brea@@
tranquil
economical
arre@@
versorgen
fitting
fridge
consu@@
beeindruckende
abetes
bürgerschaft
Vermögen
miner@@
erender
thur
DE@@
cooperative
einbeziehen
Aufpreis
64@@
Beobachtungs@@
Arbeiter@@
erzielte
Vorgang
č
Amat@@
durchschnit@@
fizierte
Hague
Equipment
Want
verbundene
Wissens
vign@@
klarstellen
econom@@
bege@@
italien@@
fried
Jet
feasible
passion@@
traf
läufigen
Ala@@
Un
enforce
coura@@
ktivitäten
erhebt
.NET
sau
Somalia
couldn
künstlerischen
trächti@@
sparteien
exacerb@@
passport
Portfolio
mma
dants
heimischen
FTP
Points
compiled
Übereinkunft
energe@@
ideology
stle
Sites
confidentiality
surf
Mercosur
zulegen
Gestalt
herbei@@
Beau@@
biologische
irgendwann
2.1
Tempel
wirst
lemma
Broschür@@
fairer
cabin
Machine
cians
condem@@
inch
multinational
Wri@@
veri@@
β@@
gefertigt
etti
lov@@
frank@@
versprechen
Zak@@
Stephen
chie@@
geschul@@
fluss@@
untergebracht
Translation
continuity
trendy
Ds
gangene
echo
servatory
atta@@
Tiefe
Hof@@
Orchestra
dringlich
Stabilisierung
fulfilling
Some@@
le-Distribution
turel@@
ğ@@
Parking
aman@@
Rettungs@@
amento
automobile
Cafés
diplomacy
burn
Century
Schuh@@
Erweiterungen
Iron@@
schwarz
navi@@
geld@@
Schlacht
TRA@@
Has@@
comprehensible
F.
utz
Conci@@
dei@@
Phasen
shes
Tok@@
Lufthansa
encourages
irgendwie
erstre@@
UT
thick
quoted
safeguards
existi@@
Erhebung
Küh@@
zuführen
funktions@@
keln
responded
wenngleich
humane
Instabilität
Tschetschenien
Finanzielle
enses
mord
abschließ@@
Trock@@
Behandlungs@@
Kart@@
edo
kultureller
Versicherung
stisch
timing
prescri@@
einhalb
Gemeinschaftsrecht
donor
anzuerkennen
riffe
optimized
Croatian
scand@@
lateral
Ball
Umstellung
ло@@
geschnit@@
evenings
model@@
ATE
Verhaltens@@
tration
menden
Manuel
mächtigen
höherer
stür@@
exzellente
13th
Vern@@
Anleitung
enni@@
Lyon
som
tima
households
shorter
pfei@@
Ec@@
dimensional
Guantánamo
lasten
zuständige
Kongo
Migranten
verschi@@
Reichweite
Funktionsweise
Layout
erwarte
eigent@@
simulation
ueber
Stern@@
confidential
stellbar
soren
Script
überwälti@@
Herzegovina
belastet
mau@@
änen
Borg
assessing
Schlacht@@
flexiblen
Felsen
Mitgliedsländer
Industriepolitik
Heidelberg
zugang
congress
erning
stadium
machung
lieferungen
even@@
Secretary-General
unge
Leb@@
azz@@
Eingabe
z.@@
resear@@
sh-@@
10th
CV@@
vertrag@@
amendo
Drucker
SilverFast
Fischereiabkommen
stock@@
chet
Marx
andin@@
holt
Instrument@@
incidents
femin@@
Aufstieg
gathering
Anreis@@
Ergän@@
E.@@
forestry
settlements
attacked
formuli@@
oro
Christi@@
ateur
bestehend
firma
Inspi@@
Model
Begrenzung
Gom@@
impressed
eping
Fundament
aston@@
Verwand@@
Netto@@
St.@@
DC@@
definite
Fiel@@
opou@@
port-@@
schlag@@
Boutiqu@@
rassi@@
akadem@@
lierung
geber@@
Änderungs@@
ographie
Konfigurations@@
Mön@@
BSD
Bek@@
sided
proch@@
Swe@@
MI@@
experiment
LI@@
drängt
erhielten
stetig
dak
locked
griffs@@
propaganda
einrichten
Pod@@
vollsten
tierenden
Mannschaft
Metrop@@
Six@@
Zusammenfassung
Unit
valued
Verw@@
Nachrichten@@
erup@@
fortsch@@
ungsphase
earthquake
suppor@@
Begleitung
Koch@@
Kohäsion
Poettering
architect
Bandbreite
organising
plot
roler
unkten
nachfolgenden
problematisch
Jen@@
Bike
schlicht
Graphi@@
ffern
ranks
Bologna
uts
ttaus@@
Modellen
zuhalten
German@@
opt
Fortunately
sade
batteries
recur@@
schlim@@
Entscheidungsträger
Entdeck@@
platt@@
zug@@
OM
ю@@
kritisieren
übertragung
zern
Minim@@
righ@@
imbalances
MB@@
verknü@@
soll@@
ergänz@@
Import
municipality
bition
dropped
schweigen
satelli@@
marble
Mini
Dolomites
heimer
sung
auseln
prozessen
etwa@@
gewaltige
agn@@
behindern
Mittagessen
Vertrau@@
veau
llo
schal@@
Objective
Bele@@
debts
antique
Continental
Gesprä@@
Evalu@@
YouTube
Fotografie
exakt
cane
Verbündeten
zeh@@
iors
pir@@
Func@@
Steel
Hygi@@
Aparthotel
Finanzminister
defines
Eich@@
tritts
NA
toxic
Krem@@
Tepp@@
Legi@@
за@@
Button
purchases
Logistik
Cancún
übernahm
andel
Barro@@
Gewerk@@
Erziehung
pit
recognises
understandable
ratify
vorgesehene
ure-@@
anticipated
park@@
berechti@@
entre
erhöhte
Minde@@
magazines
nahe@@
wälte
Tabellen
bedded
IST@@
Dolomiten
LabVIEW
toys
animation
wahrgenommen
gieb@@
köst@@
harder
Nepal
besuchte
mware
Verlag
CPU
ssi
Beibehaltung
widerspiegelt
linen
hebung
Griechenlands
DEN@@
anerkannten
heruntergeladen
beauftragte
Wand
Terror
encountered
Domini@@
cation
Finn@@
Economy
attentive
GA@@
beh@@
мо@@
ny@@
Us
Steinberg
Konsolidierung
veness
barrier
grey
preserving
viruses
Texten
attitudes
Mic@@
Hybri@@
komplizierten
japanische
kenne
ligence
ь
unzählige
24-@@
Ausschüssen
Datens@@
visten
erbringen
Stern
demon@@
aph@@
Haut@@
employ
offer@@
Labor
Estland
sprung
verantwortung
Auskunft
kus
captured
mietung
Motoren
spreis
conservative
einigt
Erkenntnis
aufhalten
sored
dex
ThyssenKrupp
macroeconomic
County
bemü@@
gebo@@
partment
Para@@
erstklassige
transi@@
Kompetenz@@
entary
potenzial
dealer
.-
varying
Wikitravel-Benutzer
Revolu@@
gliches
coup
versuchte
tigsten
gehalt
dying
Rohstoffe
hosted
α
transform
aufgeführten
übergreifende
Leon@@
broadly
zonen
schwä@@
jana
Stab@@
ethn@@
ump
Chianti
Workshop
enemies
Shops
floods
tigkeits@@
Reparatur
Gemeinschaft@@
merchan@@
Info
Vide@@
Hauptziel
spati@@
asso
Nan@@
forder@@
κ@@
getre@@
ktem
Screen@@
Reisenden
Skand@@
Machen
Montreal
45@@
befreit
klick
trug
ünsti@@
seed
WE
ITY
husband
Management@@
ancies
Klaren
ranking
eno
Castro
eso
YORK
esenen
Misch@@
unüber@@
midst
avian
Engine@@
streiten
measurements
oming
Darlehen
Maus
revol@@
Arbeitszeit
Cash@@
geeinigt
vin
aven
aked
vereinbar
cons
qualification
sfer
Beschäf@@
experiments
N-@@
Police
aufkommen
Welle
endums
amoun@@
Unterbrech@@
Wolf
limm@@
wins
medien
haber
closest
Bestände
boy@@
Rechtsrahmen
Mercure
stungen
kost@@
israelische
Wollen
activists
verläuft
sic
Offic@@
Organ
Plattformen
onian
ow@@
Militär
transnational
Hinzu
10.00
wood@@
Verschlechterung
mé@@
thotel
debatte
need@@
offizi@@
verkörper@@
demselben
erzählen
detected
maßgeblich
tigste
wohnt
Wartungs@@
geheim@@
Pisa
ASEAN
ereien
bie
auswahl
nier
privilegi@@
Konvergenz
2050
Sey@@
kostenfreien
Mix
crimin@@
Prüfungen
komplizierte
imagination
Malware
partnern
PVC
Wohl
potenziellen
CD-ROM
senses
prison@@
Kamin
coating
korrigiert
organisms
geschicht@@
holz
refreshing
horiz@@
privileges
ces@@
rocks
Leiden
westlich
warrant
Far
christlichen
hardt
Ministerpräsidenten
linear
Schwi@@
Anleger
dossier
diagnosis
terten
zwecken
tops
Sozialpartner
verlängern
Korrektur
Erwachsenen
stationen
bik
inspections
verursachten
Vollständigkeit
wünsch@@
warran@@
Baden
ld@@
timent
Hochschule
eler@@
versorgt
abor@@
numer@@
schmer@@
Astrium
ott
Zusagen
Spock
Medium
Salon
random
atar
journalist
Mineral@@
Volk@@
vorzugehen
definitiv
schrei@@
Ersten
Klassen
gence
aufrechtzuerhalten
Reno@@
solarium
tot
extremis@@
Blü@@
Gebäudes
Harmonie
gemeint
launching
Schnee
promin@@
Kath@@
Fou@@
cel
Aar@@
grass
accessibility
formity
genetisch
én
versu@@
Berechn@@
modul@@
Lab
ret
Cardiff
denkbar
hielten
stituted
voltage
gelegentlich
Tauchen
weakness
Qui@@
slowak@@
gängig
Obst@@
zurufen
mah@@
logan
ernde
riften
pressures
rewar@@
Öff@@
Impul@@
Gremien
discipl@@
Spannung
Associ@@
Komplex
gnü@@
ICA
Norwe@@
initiate
Cleaning
Franzosen
begeben
NH
Base
zuverlässi@@
aults
pository
ckness
Ali
Wärme
Jord@@
Nordirland
ermög@@
G.
Upper
retention
ichtungs@@
tim
stres@@
folgedessen
Á@@
dachten
sp
kom
splan@@
Note@@
help@@
oked
kne@@
Regierung@@
widerspiegeln
Müt@@
Oster@@
Neut@@
fert
ubs
Oran@@
eks
Geschlech@@
tien
verwandelt
entnehmen
Me
sätzlich
Alz@@
Herstell@@
H.
stabil
IRC
ula
entsprechender
adar
juristischen
anschauen
bedaure
demnächst
liebt
Erwäh@@
1930
widmet
trace
bold
semin@@
Sv@@
griffs
Mozart
aufgeben
Südtirol
Subsidiaritätsprinzip
Gothic
Core
Periode
our-@@
Catalunya
particip@@
Einsparungen
Wagen
CMS
kking
intu@@
mutz@@
Property
statutory
reserv@@
Konferenz-
commodity
enna
gelassen@@
Wh@@
.jpg
aufnahmen
i.e
Seel@@
Quite
heav@@
Alli@@
Diversi@@
lack@@
fastest
unen
plung
competitions
Ursprün@@
Harv@@
sky@@
eb
gewalt@@
Ermitt@@
transparente
backup
Secre@@
Spiegel
Amerikan@@
conditioned
Explo@@
parent
Franç@@
Doctor
Überwindung
verbrauch
Fahrzeu@@
Appell
disc
Slovak
stretch
mittelständi@@
Soft@@
ers@@
Upgrade
Messen
esthouse
Birma
stellvertre@@
voir
Fahrrad
beugen
isons
edly
lov
bilaterale
Cambo@@
Pakt
artikel
Design-@@
14th
Vati@@
verwendete
Nic@@
anding
22.@@
manually
Monitor
Seminare
bend
CR
respec@@
scan
adop@@
inappropriate
Emer@@
Sicherstellung
Lamp@@
vegetation
enzo
entfernten
Competition
recreation
Lig@@
arbeitenden
tagung
ström
withdrawn
successes
continu@@
einheimischen
Technologie@@
Jahrestag
Map
G8
Fuss@@
dose
Handhabung
eggs
priori@@
Napole@@
Sandstrand
Aussehen
Thessaloniki
Preises
oberste
Tragen
Klassen@@
ernity
Dres@@
Wiederein@@
Kontinents
collecting
long@@
disku@@
zar@@
topical
Iz@@
vorherseh@@
nee@@
Grie@@
shut
hoping
Warnung
kehrungen
grain
katho@@
unterschiedlichsten
spir@@
überdenken
Rie@@
nder
Vö@@
pursuit
verteidigt
deutsch
convey
eiro
tücher
liner
Spekul@@
educated
Ehe@@
Ergeb@@
ida
öser
fahrt@@
Temple
gee
wöch@@
dum@@
Lande
steil@@
weiterentwickelt
acou@@
Inneren
neighb@@
untersagt
1.000
beheben
Arbeitsplat@@
Ign@@
Zweifel@@
Below
bow@@
Geschäftsreisende
Zahl@@
screens
Fotografi@@
Inc.
inas
Allgemein@@
Moz@@
ritten
ograph@@
Nazi
plo@@
Mär@@
Donn@@
fu
territorialen
prises
schiff@@
slight
attending
Exempl@@
Bemühen
Wunder@@
foodstuffs
Cape
energi@@
Bibliotheken
Geor@@
disappeared
QuarkXPress
Terrorismus@@
weaknesses
Laundry
Mut@@
Scottish
dirty
definierten
transl@@
Tschech@@
beauftragt
beloh@@
griff@@
strukturellen
speisen
Symb@@
Proven@@
hervorzuheben
Dekor@@
Unser@@
Dame
Ecu@@
injury
Viren
erbe
relevance
installer
rasse
ν@@
eliminating
chtest
stresses
enfor@@
Krank@@
beschleunigt
macher
quiry
Flor@@
vernünf@@
galt
alb@@
usamment@@
erbare
Mare
minded
café
günstiger
affair
liquidity
Multimedi@@
genocide
sortium
Verkehrsmitteln
Biokraft@@
steep
satis@@
Kompromiß
Stoffen
recti@@
assungen
precautionary
sensors
tub
stellern
anymore
Angehörigen
desert
ito
Schne@@
agua
Gerü@@
Angestellten
live@@
Schü@@
A1
beunruhigt
Wilhelm
Natura
networking
thrown
bookings
hochrangi@@
sympath@@
Badewanne
Viertens
101
ussy
Gewähr
happ@@
indul@@
axis
positioned
vot@@
Delegationen
Garage
Schwächen
Kommissars
Clean
spiegel
¿
Fire
Nächte
passage
forever
einfaches
halle
motivation
ा
grö@@
pedition
Konservativen
Sisko
Mono@@
stence
Male
rhetoric
beihilfen
Torre
density
Filmen
vereinen
YOU
deliberately
VII
dra
concessions
verzeichnis
hinnehmen
wet
apo@@
gentle
Al-@@
Law@@
BA@@
prostitution
nutrition
geable
bedeutender
Strafe
ört
vegetable
Asyl
Euro-Mediterranean
zufriedenheit
extremen
gewaltigen
Traff@@
schreiten
ALDE
Egyptian
anscheinend
konzer@@
Daneben
Profile
broadband
Nachtleben
einstellungen
Questions
blauen
Likewise
ASP
thirty
Angola
Ents@@
lieu
Garanti@@
Chemikalien
Algerien
Standor@@
stered
Niel@@
EI@@
verläss@@
pretext
hauses
Wid@@
abel
Gardens
Articles
Anlage@@
bauer
convi@@
offensich@@
represent@@
1,000
Kriege
coordinating
Palais
Fundament@@
entziehen
gangen
peripheral
belebung
List@@
progressi@@
belast@@
Aufstellung
san
ückt
Ausnahme@@
sprachige
idylli@@
instances
asten
mie@@
chio
shame
outermost
Reda@@
establishments
ausgegangen
municipal
overseas
stenten
crash
Beschränkung
katastrop@@
buffer
berechtigte
Museums
versichert
`s
Erwachsen@@
OSCE
Einerseits
persuade
wearing
geschah
archives
SEO
ämp@@
erzeugnisse
Momente
chtig
klo@@
specul@@
belastung
L.
graben
family-run
organizing
Gewässern
muster
105
repräsent@@
äume
Meilen
zügig
persecution
glicher
Dokum@@
umbrel@@
pension@@
Japan@@
blich
Autob@@
osteuropäischen
screening
glän@@
nächstes
wissenschaftlicher
Einleitung
vising
Turin
formulieren
Mitbürger
Gemäl@@
void
mption
artiges
gewähr@@
conscience
yacht
zucht
aufgegriffen
Gesichtspunkt
positively
Chirac
leisch
do-@@
ologies
Stay
Fax-
Ansehen
cion@@
03.@@
uneingeschränkte
tenden@@
auction
Lieferungen
modernis@@
consec@@
ме@@
state-@@
Five
Vet@@
Typen
lifelong
Verzeichn@@
Verhaltenskodex
Rechtsprechung
protectionism
ags
Genau@@
dh@@
Katalo@@
jack
Schulungen
Pfeiler
Cypri@@
schrän@@
Zar@@
nett
polizei@@
Bonus@@
Veranstaltungsräume
celebration
thful
merkt
preci@@
Modi@@
racy
bron@@
Course
Canc@@
cocktail
Jas@@
versicherungs@@
mitzuteilen
afft
laim@@
Freilassung
Wellnessbereich
Damals
ITE
lou
mysteri@@
herkömmlichen
Bisch@@
betreffende
Werkzeug@@
Gegen
birgt
tura
halls
sprechende
sidy
boot@@
Löhne
handelte
Kurdish
malen
Einfach
DF
laundry
accomplished
älteste
anschließ@@
Berat@@
steu@@
ket@@
aufrecht
Samu@@
steigerung
verarbeiten
springs
cure
Glan@@
ancen
Agent
eph@@
grande
म@@
zoom
populi@@
NATO-@@
stainless
spri@@
höher@@
Kit
emergence
present@@
pfer@@
Davi@@
act@@
deployed
jour
accompany
Spek@@
bay@@
Carl
Streben
Verwenden
speculation
eme
appelliere
eder
arch
ventions
Unregelmäßigkeiten
gewichte
anta
faden
Interventionen
dler
TM
Volkswirtschaft
anger
democratically
gekrön@@
KM@@
Rober@@
unternimmt
sat
eingeschrän@@
drag
sensib@@
Et@@
gian
Ausgleich@@
ush@@
Eis
mounting
asien
kub@@
xion
komfort@@
Metal
Werde
Malm@@
socialist
Gemeinschaftsebene
ą@@
apaz@@
poorer
wählt
Blumen
bester
та@@
abgedeckt
Filter@@
stly
euer@@
Ment@@
Radisson
entdeckte
Toskana
spiritu@@
inion
Incre@@
Schwanger@@
bestrebt
hinreich@@
influences
Ausserdem
Check-In
shortage
intensity
schär@@
wünschte
reminded
Scientific
täu@@
varieties
incredibly
repräsentiert
experimental
contradiction
gänzlich
enny
elektrischen
inierte
Neigh@@
förderungs@@
getroffenen
liest
Aufteilung
zweites
Auszeichnung
teilnehmenden
geehrter
Alexand@@
travel@@
grundsätz@@
gemeldet
Alle@@
Gesetzgeber
llon
correspond
bürgerliche
GMOs
reinen
Bearbeitungs@@
orph@@
ehrgeizige
Leser
Near
1956
angekommen
Romul@@
Schuld@@
irregularities
denom@@
loten
dialo@@
veranlassen
loh@@
eventu@@
hne
Aufbau@@
Plätzen
COD
geschlossen@@
turnover
Ausbruch
ordnungen
tissue
Virtu@@
put@@
äck@@
Commer@@
real-time
Clin@@
servatives
einschlägigen
reveals
Vieh@@
barely
Befürchtungen
kaner
tiles
NCC-@@
Estate
picked
Iran@@
itar@@
masters
objections
spective
chains
flower
antwortet
setzungen
verbesserten
possession
light@@
mill
gewahrt
bilität
acres
zusammenhän@@
mög@@
geplante
facilitating
Klausel
vertrieben
Inhalts@@
gated
roph@@
Bah@@
leck@@
resist
zivi@@
fred
replacing
embargo
mais
rationen
anbieter
überwachung
sheep
herauszufinden
BSE-@@
Happ@@
gesetze
agenturen
economists
hine
beliebige
Entschul@@
liberty
f.
dü@@
Fit@@
aufw@@
kilom@@
ex-@@
accoun@@
Motion
Boutique
USE
etch
multitude
det@@
lässigkeit
rek@@
moment@@
thirds
pflicht
nels
komb@@
wiederherzustellen
built-in
isieren
Istri@@
donation
EEC
upgraded
Freihandels@@
Eintritts@@
E.
steil
rechnet
Rotterdam
nein
dening
zweier
infection
infrin@@
nine@@
Speicherk@@
Gad@@
Münzen
Schienen@@
zuvor@@
Schauen
Rhyth@@
11-@@
ckey
attracted
ängen
gelte
hion
LL@@
Gat@@
billions
bridges
bene@@
Schriften
mili@@
Ethernet
vorüber@@
vorwiegend
directors
diameter
richtete
Appar@@
second-@@
Genfer
Gründer
Wohlergehen
DB@@
rays
Aluminium
earnings
descriptions
Anstatt
Almost
Business-@@
Provence
Dorf@@
Gleiche
designing
amentos
Enga@@
moul@@
German-@@
normali@@
manipulation
schwachen
osity
Politikern
Reisende
crop
telefon@@
etern
ographi@@
ganzhei@@
verlang@@
denz@@
brücke
Variablen
umfangreiches
Exporte
aussieht
sanit@@
spektrum
Flair
matching
mitig@@
itement
updating
mende
polnische
Partic@@
UP
part-@@
speeds
Klu@@
momentum
unverändert
enttäu@@
consultants
Gefühle
Records
häufigsten
verlor@@
outline
protein
Diskussions@@
Seven
Freund@@
ени@@
ultur
Alicante
pse
hafen
Schriftliche
Hart@@
rics
Cadiz
Care
socio-economic
Vali@@
Legisl@@
rede
Erwärmung
Botschaften
eliminated
obliegt
geprä@@
zyklus
Größen
alleged
Bayern
Conil
sozio@@
xing
veränderten
She@@
Spaniens
assu@@
PayPal
aufgeteilt
1957
glichkeiten
utor
lus
Wechselkur@@
basin
motto
dec
fem@@
successor
Di
cultivation
großzügig
preparatory
Autovermietung
unilater@@
personalized
mobil@@
wns
ounce
decke
Dalai
install@@
Electronic
Moo@@
Sich@@
terte
atus
voic@@
Spiegel@@
sprüche
inequalities
acid
vergabe
olf
schot@@
voor
wachstum
Bestandteile
Check@@
stärker@@
inkl
fossil
tract
Bec@@
codi@@
Herzegowina
kommend
Flusses
behilflich
yen
partments
exemption
einwand@@
zona
hospitals
fortress
Verhältnis@@
Profil@@
reward
shipment
historischer
willigen
überschritten
call@@
Symbole
Persönlichkeit
best-@@
variations
izza
tschaft
LK@@
Verstöße
mitting
Maybe
ested
disadvantaged
³
glas@@
Wallström
ccer
factories
gedenkt
ти@@
Heraus@@
Unfall
sof@@
Bilder@@
hosp@@
ihrerseits
weiß@@
ле@@
Varianten
Aufstockung
Fass@@
dlern
älen
shoulder
Sciences
Teilnehmer@@
folgend
uries
schlu@@
Magazin
Dauer@@
ularly
Marra@@
bräu@@
Applikation
injection
rial
virtuelle
Wiederaufnahme
alleg@@
strongest
kW
sensiblen
C.@@
schwar@@
Anbau
progno@@
Iber@@
enab@@
Besatzung
rote
Meeres
bibliothe@@
ühlen
teeth
atis@@
tilien
graf@@
rises
nesses
Afghan
unterrichtet
verlaufen
halbe
Exist@@
multination@@
Evaluierung
ode
Nahrung
Arabia
Berichterstattung
Official
lebens
analog
obgleich
Energiet@@
Funk@@
strip
fängt
ic-@@
11.00
Stärken
privat
häufi@@
einräumen
Genehm@@
gängigen
Protektionismus
1965
erledigen
001
treating
Made
Lettland
Seminar
abzustimmen
api@@
wag@@
1.0
1900
verweigert
instruction
ILO
Camping@@
Nau@@
Belastungen
thou
Feedback
folgendes
atics
predictable
Simon
forti@@
Bügel@@
tigungen
einzeln
lub
besorgniserre@@
ser-@@
Anmel@@
unterstützten
ganzes
edt
prüft
ausch
Russians
strei@@
Lebensbedingungen
Dün@@
beau@@
verfassungs@@
ziehungs@@
bring@@
altogether
verfü@@
beck
115
ism@@
sitzt
acity
hinausgehen
entscheidungen
AVI
Erdgeschoss
deterior@@
mont
ähnlicher
Tunes
echtes
recipient
Color
Streit
stamp@@
Markus
Claude
trun@@
dul
cham@@
Beantwortung
scrat@@
cryst@@
Erzeugnissen
Around
protesti@@
proofed
organisator@@
Sün@@
commissioned
disadvantage
guiding
assor@@
Experten@@
Stoff@@
undering
igungs@@
punkt@@
varies
signatures
rand
Certainly
auber@@
posting
Stress
traten
deliveries
Paar
Kreis@@
bettzimmer
Befreiung
fully-@@
Lic@@
Vergabe
befürchten
generates
rüstung
EM-@@
wesent@@
Vertrauens@@
commend
gage
ção
Flora
studierte
rab@@
Villen
bein@@
orientieren
threaten
Verfas@@
ehemali@@
Fische
sme@@
vermei@@
Zoo
zwecke
Riesen@@
Mist@@
Konsu@@
bond
verfasst
längeren
asymm@@
baum
Palm
INI
broke
tired
europaweit
tackled
Coff@@
energy-@@
wissens@@
esto
Kirchen@@
attach@@
Gebäu@@
sciences
üpp@@
Christop@@
ambots
ethnische
Cambridge
tune
Cyber@@
mmer
geschäfte
Chro@@
accountable
Cany@@
Arafat
schrecklichen
São
Eingan@@
Größen@@
vertrags
offensive
Übersetz@@
wirtschaft@@
hten
Venti@@
impe@@
vulnerability
tar
Reich@@
befin@@
erospace
ampli@@
vio
vertrauens@@
zwingend
Kolumbien
gaps
Wan@@
Erleichterung
strich
pragmatic
ă@@
Vinc@@
streng@@
catalog
Kohle
transform@@
Quick@@
Fahren
Weihnachten
psycho@@
daraufhin
fachen
Liikanen
corresponds
Oase
Teils
richtlinien
distances
Mio
unglück@@
renovation
elimination
ill-@@
umfangreich@@
Patch
begannen
lässig
stuft
vorgaben
Wäldern
sofor@@
attack@@
beeindruckenden
sahen
cand@@
Brüder
gates
asty
unterschied@@
tti
krei@@
gleicht
redund@@
appe
avoid@@
zusätzlicher
Erlaubnis
refund
operieren
befindlichen
phar@@
bezir@@
Atlantik
TP
land-@@
Partition
arks
Corbett
Einwander@@
Auseinandersetzungen
Farm
yards
Serviceleistungen
Exc@@
Ferrari
staff@@
architects
bean@@
lebte
wap
Dienstleistungsrichtlinie
GAT@@
leisch@@
Polo
lifetime
Erholungs@@
einfluss@@
Peru@@
unvergleich@@
baden
Has
Nikol@@
Stä@@
Frankfurter
displaced
later@@
ablen
ergie
eco-@@
ause
1200
derartiger
unab@@
Patente
ffer@@
confronted
Reding
Zertifik@@
monastery
XL@@
Lock@@
gefährlicher
Gescheh@@
cury
ma-@@
persönliches
exercises
Füßen
überarbeitet
temple
ausschließ@@
POR@@
1948
fabrics
erledigt
ritte
restlichen
DER@@
konvention
Dell
liance
news@@
finan@@
Speise@@
fireplace
rations@@
EOS
gesetzgebung
sical
Zufall
delightful
Richtungen
beanspru@@
CNS
exportieren
Züge
fortgeschrit@@
Schauspieler
grades
ehrgeizigen
präsent
haltungs@@
ň@@
komponenten
incurred
Kürzungen
infin@@
Logos
promptly
östlich
negligence
zeugt
Rücksicht
iden
läufig
empf@@
accus@@
shores
neuro@@
symptoms
Total
unterstützte
konkreter
hill@@
grace
Hypothe@@
enchanting
sidents
Währungsfonds
Chur@@
ermutigt
Instanz
abhängt
honor
esische
Fris@@
eses
grav@@
twi@@
bulk
zögern
einzigartiges
Süß@@
lars
nachkommen
gic
Infineon
Mr@@
Mitt@@
ceas@@
reas@@
metal@@
gress@@
Italia
marken
gesteuert
jen@@
Try
college
informations
Liberals
atin
zün@@
Flugzeug@@
cks@@
Verurteilung
rag@@
währung
inau@@
seitigkeit
fabrik
Isa@@
gestütz@@
stron@@
berechnen
e.V
Erdo@@
Abfahrt
Sogar
livestock
Konsequenz
rehabilitation
laptop
simpler
Forschungs-
fürchte
Eigentums
bevorzugen
щ@@
Classi@@
Demokratischen
Rosa
Kongre@@
Ostse@@
oun@@
Meerblick
empfehle
GL@@
inische
siven
rami@@
mothers
emotions
NA@@
Arn@@
Stabilitätspakt
forbidden
Durchbruch
vas
Auslieferung
fortun@@
unberühr@@
angehört
Strei@@
Nei@@
staates
dened
Akteuren
liberale
GVO
Urlaub@@
Zir@@
coin
heiligen
Posten
echo@@
Prot@@
-Seiten
lich-@@
woll@@
envis@@
cave
transeuropäischen
Saudi@@
PE@@
mg
Spiri@@
Mitentscheidung
ART@@
da-@@
jeglichen
Málaga
Tunnel
Dien@@
Dub@@
entino
freiwillige
Schulung
compensate
haltens
AKP-Staaten
Liga
fehlenden
MEP
anspruchsvollen
vei@@
actu@@
dies@@
rigor@@
allevi@@
Gestern
Gastronomie
ologists
pity
Bestreben
recreational
Körpers
Behauptung
103
Konz@@
Pestizi@@
Carl@@
läßlich
dliches
Imperial
pher@@
juice
ference
king@@
deter@@
E-mail
Walking
äter
lindustrie
Innenhof
age-@@
möge
Ethiop@@
Zusammenhalts
sooner
ärten
millenni@@
decides
Klärung
Klei@@
Privatisierung
anmerken
ф@@
drawings
HER@@
HT
repercussions
Milliarde
own@@
Vorsorge@@
nördlich
casts
komplizi@@
unterricht
YO@@
perat@@
nachtei@@
fruit@@
scanner
aspirations
Dienstleister
collap@@
Rum@@
Student@@
pump
blen@@
seinerzeit
deinem
1966
stehend
fisher@@
allet
frozen
lib@@
investi@@
gger
competing
entin
Ausgewogenheit
ologist
entierte
ffekt
Entsor@@
ammer
prevail
Brief@@
Käl@@
allgemein@@
umgewandelt
Photocopying
assemb@@
vocal
Linz
Sozialdemokratischen
rats@@
tragene
ordentlich
verlin@@
complied
Graz
seating
gewöh@@
itiner@@
Ausdehnung
Liechtenstein
Öffnen
Edit
könig@@
offenkundig
parliament@@
ernsten
iten@@
unterzeichnen
Wertpapier@@
endt
regulating
la-@@
Yesterday
IS-@@
Kino
dine
Jarzembowski
Fotokopiereinrichtungen
gangs@@
ägyp@@
Län@@
Residenz
Baden-@@
EWG
Sla@@
umfassender
ernähr@@
historisch
diesjährigen
Marktan@@
meisterschaft
Erläu@@
interoper@@
positiver
Hot
vertiefen
accurately
Friedensprozess
aesthetic
amos
Konsum
Amb@@
Strö@@
Etiket@@
ankommt
verification
äuft
alar@@
gewäs@@
arious
erous
Zeitsch@@
formulated
alisierungen
gourmet
third-country
Lyn@@
abstimmung
notify
jenseits
chaos
Dolom@@
rea
nahmen@@
gendsten
Verband
Uganda
promotional
mittelalter@@
versatile
soviel
Informationsschalter
schlug
coa
ELL@@
seasonal
Energiem@@
tends
Mec@@
ender@@
enshrined
Betrieben
tings
güter
wholly
massiv
tariffs
gebil@@
voraussichtlich
herbeizuführen
Salvador
5.00
einander@@
Eden
technologien
Impro@@
spot@@
Haftbe@@
dear
occurring
juristische
ausstellung
tschech@@
sors
Agen@@
anth@@
occasionally
ämmen
substitute
jury
aktuell@@
assumption
toff@@
auszubauen
finger
sphase
luxuriösen
Mam@@
hoben
Zuschauer
chas@@
intern
gnügen
specification
elektro@@
Expo
Servic@@
Starting
Serbian
Weitergabe
Standorte
tism
geordnete
Kohäsionsfonds
Sech@@
begrüß@@
ambiguous
shapes
dener
Fußgänger@@
Käse
Laufzeit
PR
Lärm
demic
photographer
coupled
blieben
48@@
drama
therapeutic
Fotografen
Wirtschaft@@
willen
adas
tlichkeit
wendi@@
professor
Telekommunikation
biking
voranzubringen
Gall@@
fragte
dafri@@
verhaftet
augen@@
commission@@
Gig@@
conceived
Kuli@@
Nachweis
wle@@
erholsamen
verurs@@
konver@@
zzle
Themas
Spo@@
Snacks
conversation
Ansonsten
Akt
langjährigen
zusammengefasst
gher
concer@@
hun@@
Krebs
critics
Gewis@@
orthodo@@
aga@@
oul
Democra@@
stücken
geared
sno@@
credited
reprodu@@
Vorbeu@@
ld
ascript
1962
Acrobat
seem@@
großartigen
Branchen@@
Frühling
Wunsch@@
Silver
Platform
Ideologie
Orange
allgemeiner
gebern
kontinuierliche
sister
Director@@
Schir@@
Unrecht
absoluten
herum@@
Miner@@
erstattet
republi@@
kontinuier@@
IMO
intermedi@@
ssed
aber@@
Zagreb
schätze
strecken
Restau@@
Co.
Verpack@@
ican
Mitgliedstaates
Myanmar
Krankenhaus
Pflan@@
Ves@@
ं
Rücktritt
ankommen
Authenti@@
financially
licences
Fachleute
Audio-@@
risiko
vic
Codes
Lagerung
manoeu@@
blas@@
Vormittag
process@@
cafes
applau@@
CAD@@
royal
agnen
utable
Dav@@
chill
Zoll
Streitigkeiten
encryption
appropriately
discounts
flich
Unfälle
Verknüpfung
Öffent@@
Deck@@
Fine
Dek@@
balls
ject
Australian
realities
vens
Richt@@
rahmen@@
Iceland
-and-@@
sko@@
vocation
angezogen
cozy
Buyer
IO
aufgegeben
business@@
MAN
Share
Ou@@
connects
einnahmen
thy@@
Spam
bow
liberalization
profi@@
überschreiten
Baby
gion
excluding
Haushaltsausschusses
thema
lität
Dimensionen
alarming
Errungenschaften
Meinungsfreiheit
Naples
manipul@@
Jeden
dehnen
gt@@
bekistan
stanzen
Arten@@
Stück@@
Kommunismus
barri@@
absta@@
räte
staun@@
biotechnology
sixth
pause
konzentri@@
operativen
fasste
Commons
horri@@
Koalition
privilege
Kunsth@@
240
Zeichen@@
Carmen
1939
Finan@@
Konzeption
Arctic
Universitäts@@
extre@@
Fitnesscenter
pakete
jahres
ouren
Hack@@
Teh@@
amaz@@
containers
gepflegt
melten
höchstem
Cotonou
angem@@
й@@
Gesundheitsversorgung
stamm@@
Auswirkung
conven@@
Sounds
Aktualität
Glückwunsch
issuing
zh@@
mediterranen
Telefonnummer
einziger
SI
08.@@
solle
Folgenab@@
Anfänger
essimis@@
besie@@
tails
Integr@@
istics
lical
attle
SR@@
Trading
Bedauern
kov
ambigu@@
unternehmen@@
conception
Pilot
Seville
kunft
Reservierungen
öne
did@@
Haushaltskontrolle
9.00
Carlo
foun@@
tap
Brot
Rhine
elligkeit
och
ghty
initiativen
Betrü@@
exceeded
geist
Ausflug
Abent@@
Acces@@
dable
Einigkeit
Transfer@@
wörter
beurteilt
angebot@@
Divi@@
schwarze
sebene
Meilenst@@
amerikan@@
film@@
alistic
voy
Jesolo
Kampagnen
elo@@
Messung
Zen@@
ausgeht
Elisa@@
geschaff@@
exklusi@@
Renten
Wortlaut
Kis@@
Gehäuse
übereinstimmen
ordnet
Auswertung
etabliert
breiter
rale
lamp@@
ischerweise
Dubrovnik
persistent
1961
Auftritt
[...]
